node {
  name: "Train/TrainInput/raw_data"
  op: "Const"
  attr {
    key: "_output_shapes"
    value {
      list {
        shape {
          dim {
            size: 5195
          }
        }
      }
    }
  }
  attr {
    key: "dtype"
    value {
      type: DT_INT32
    }
  }
  attr {
    key: "value"
    value {
      tensor {
        dtype: DT_INT32
        tensor_shape {
          dim {
            size: 5195
          }
        }
        tensor_content: "\006\000\000\000\010\000\000\000\001\000\000\000\010\000\000\000\001\000\000\000\010\000\000\000\010\000\000\000\000\000\000\000\001\000\000\000\016\000\000\000\000\000\000\000\001\000\000\000\000\000\000\000\004\000\000\000\006\000\000\000\001\000\000\000\006\000\000\000\000\000\000\000\001\000\000\000\000\000\000\000\017\000\000\000\003\000\000\000\r\000\000\000\001\000\000\000\002\000\000\000\002\000\000\000\000\000\000\000\004\000\000\000\000\000\000\000\000\000\000\000\001\000\000\000\000\000\000\000\021\000\000\000\020\000\000\000\016\000\000\000\001\000\000\000\001\000\000\000\001\000\000\000\r\000\000\000\005\000\000\000\003\000\000\000\002\000\000\000\000\000\000\000\000\000\000\000\005\000\000\000\000\000\000\000\017\000\000\000\007\000\000\000\003\000\000\000\001\000\000\000\002\000\000\000\013\000\000\000\000\000\000\000\033\000\000\000\017\000\000\000\006\000\000\000\001\000\000\000\005\000\000\000\001\000\000\000\001\000\000\000\021\000\000\000\003\000\000\000\016\000\000\000\000\000\000\000\000\000\000\000\002\000\000\000\001\000\000\000\023\000\000\000\001\000\000\000\000\000\000\000\000\000\000\000\000\000\000\000\000\000\000\000\001\000\000\000\000\000\000\000\002\000\000\000\000\000\000\000\001\000\000\000\000\000\000\000\000\000\000\000\000\000\000\000\007\000\000\000\034\000\000\000\000\000\000\000\000\000\000\000\001\000\000\000\002\000\000\000\007\000\000\000\002\000\000\000\001\000\000\000\000\000\000\000\007\000\000\000\000\000\000\000\001\000\000\000\000\000\000\000\000\000\000\000\001\000\000\000\000\000\000\000\001\000\000\000\002\000\000\000\000\000\000\000\001\000\000\000\002\000\000\000\001\000\000\000 \000\000\000\000\000\000\000\001\000\000\000\002\000\000\000\006\000\000\000\002\000\000\000\004\000\000\000\001\000\000\000\021\000\000\000!\000\000\000\n\000\000\000\010\000\000\000\013\000\000\000\003\000\000\000\006\000\000\000\000\000\000\000\000\000\000\000\000\000\000\000\001\000\000\000\002\000\000\000\004\000\000\000\014\000\000\000\013\000\000\000\000\000\000\000\025\000\000\000\002\000\000\000\001\000\000\000\003\000\000\000\014\000\000\000\t\000\000\000\013\000\000\000\r\000\000\000\t\000\000\000\t\000\000\000\004\000\000\000\004\000\000\000,\000\000\000\001\000\000\000\000\000\000\000\010\000\000\000\001\000\000\000\006\000\000\000\000\000\000\000\021\000\000\000\001\000\000\000\002\000\000\000\000\000\000\000\033\000\000\000\001\000\000\000\001\000\000\000\000\000\000\000\024\000\000\000\002\000\000\000\001\000\000\000\000\000\000\000\n\000\000\000\001\000\000\000\000\000\000\000\006\000\000\000\036\000\000\000\"\000\000\000\t\000\000\000\002\000\000\000\003\000\000\000\t\000\000\000\t\000\000\000\001\000\000\000\000\000\000\000\000\000\000\000\000\000\000\000\003\000\000\000\007\000\000\000\003\000\000\000\001\000\000\000\003\000\000\000\004\000\000\000\004\000\000\000\007\000\000\000\003\000\000\000\003\000\000\000\017\000\000\000\006\000\000\000\001\000\000\000\002\000\000\000\027\000\000\000\017\000\000\000\r\000\000\000\013\000\000\000\020\000\000\000\001\000\000\000\n\000\000\000\006\000\000\000\001\000\000\000\000\000\000\000\002\000\000\000\000\000\000\000\003\000\000\000\014\000\000\000\001\000\000\000\003\000\000\000\000\000\000\000\013\000\000\000\034\000\000\000\001\000\000\000\007\000\000\000\000\000\000\000\027\000\000\000\000\000\000\000\016\000\000\000\001\000\000\000\001\000\000\000\001\000\000\000\001\000\000\000\001\000\000\000\001\000\000\000\001\000\000\000\001\000\000\000\001\000\000\000\001\000\000\000\001\000\000\000\001\000\000\000\001\000\000\000\001\000\000\000\001\000\000\000\001\000\000\000\022\000\000\000\000\000\000\000\001\000\000\000\000\000\000\000\007\000\000\000\000\000\000\000\001\000\000\000\000\000\000\000\002\000\000\000\001\000\000\000\000\000\000\000\001\000\000\000\000\000\000\000\001\000\000\000\003\000\000\000\000\000\000\000\034\000\000\000\000\000\000\000\001\000\000\000\007\000\000\000\014\000\000\000\004\000\000\000\000\000\000\000\000\000\000\000\000\000\000\000\001\000\000\000\027\000\000\000\002\000\000\000\000\000\000\000\007\000\000\000\003\000\000\000\014\000\000\000\001\000\000\000\006\000\000\000\021\000\000\000\003\000\000\000\006\000\000\000\033\000\000\000\001\000\000\000\003\000\000\000\000\000\000\000\007\000\000\000\001\000\000\000\000\000\000\000\000\000\000\000\000\000\000\000\003\000\000\000\t\000\000\000\001\000\000\000\000\000\000\000\000\000\000\000\r\000\000\000\000\000\000\000\005\000\000\000\000\000\000\000\000\000\000\000\000\000\000\000\006\000\000\000\014\000\000\000\001\000\000\000\002\000\000\000\000\000\000\000\000\000\000\000\005\000\000\000\007\000\000\000\006\000\000\000\003\000\000\000\001\000\000\000\000\000\000\000\n\000\000\000\005\000\000\000\000\000\000\000\t\000\000\000\000\000\000\000\t\000\000\000\006\000\000\000\001\000\000\000\005\000\000\000\t\000\000\000\t\000\000\000\003\000\000\000\017\000\000\000\014\000\000\000\026\000\000\000\000\000\000\000\000\000\000\000\000\000\000\000\001\000\000\000\005\000\000\000\007\000\000\000\n\000\000\000\002\000\000\000\001\000\000\000\000\000\000\000\t\000\000\000\013\000\000\000\033\000\000\000\000\000\000\000\001\000\000\000\003\000\000\000\003\000\000\000\013\000\000\000\020\000\000\000\016\000\000\000\000\000\000\000\000\000\000\000\007\000\000\000\001\000\000\000\007\000\000\000\000\000\000\000\001\000\000\000\000\000\000\000\"\000\000\000\037\000\000\000\001\000\000\000\000\000\000\000\003\000\000\000\003\000\000\000\000\000\000\000\002\000\000\000\023\000\000\000\001\000\000\000\001\000\000\000\002\000\000\000\000\000\000\000\001\000\000\000\014\000\000\000\004\000\000\000\000\000\000\000\013\000\000\000\026\000\000\000\000\000\000\000\026\000\000\000\013\000\000\000\004\000\000\000\004\000\000\000\021\000\000\000\004\000\000\000\000\000\000\000\001\000\000\000\020\000\000\000\003\000\000\000\020\000\000\000\003\000\000\000\004\000\000\000\000\000\000\000\016\000\000\000\000\000\000\000\000\000\000\000\020\000\000\000\001\000\000\000\002\000\000\000\013\000\000\000\004\000\000\000\004\000\000\000\022\000\000\000\023\000\000\000\001\000\000\000\000\000\000\000\001\000\000\000\000\000\000\000\001\000\000\000\001\000\000\000\002\000\000\000\001\000\000\000\007\000\000\000\000\000\000\000\001\000\000\000\016\000\000\000\000\000\000\000\001\000\000\000\r\000\000\000\002\000\000\000\000\000\000\000\000\000\000\000\000\000\000\000\001\000\000\000\000\000\000\000\000\000\000\000\010\000\000\000\001\000\000\000\000\000\000\000\004\000\000\000\001\000\000\000\020\000\000\000\002\000\000\000\010\000\000\000\013\000\000\000\001\000\000\000\003\000\000\000\002\000\000\000\001\000\000\000\016\000\000\000\000\000\000\000\000\000\000\000\000\000\000\000\000\000\000\000\000\000\000\000\000\000\000\000\000\000\000\000\001\000\000\000\000\000\000\000\000\000\000\000\001\000\000\000\001\000\000\000\002\000\000\000\000\000\000\000\001\000\000\000\n\000\000\000\002\000\000\000\006\000\000\000\001\000\000\000\026\000\000\000\000\000\000\000\021\000\000\000\021\000\000\000\001\000\000\000\000\000\000\000\001\000\000\000\000\000\000\000\003\000\000\000\017\000\000\000\004\000\000\000\013\000\000\000\022\000\000\000\000\000\000\000\001\000\000\000\002\000\000\000\001\000\000\000\004\000\000\000\004\000\000\000\003\000\000\000\001\000\000\000\006\000\000\000\000\000\000\000\005\000\000\000\004\000\000\000\001\000\000\000\000\000\000\000\003\000\000\000\006\000\000\000\001\000\000\000\000\000\000\000\013\000\000\000\001\000\000\000\030\000\000\000\n\000\000\000\003\000\000\000\003\000\000\000\013\000\000\000\001\000\000\000\003\000\000\000\013\000\000\000\004\000\000\000\025\000\000\000\000\000\000\000\005\000\000\000\022\000\000\000\000\000\000\000\001\000\000\000\005\000\000\000\001\000\000\000\002\000\000\000\000\000\000\000\001\000\000\000\r\000\000\000\000\000\000\000\010\000\000\000\001\000\000\000\007\000\000\000\002\000\000\000\005\000\000\000\004\000\000\000\005\000\000\000\005\000\000\000\000\000\000\000\001\000\000\000\005\000\000\000\000\000\000\000\004\000\000\000\001\000\000\000\r\000\000\000\007\000\000\000\000\000\000\000\002\000\000\000\000\000\000\000\000\000\000\000\n\000\000\000\010\000\000\000\004\000\000\000\000\000\000\000\000\000\000\000\005\000\000\000\006\000\000\000\000\000\000\000\016\000\000\000\014\000\000\000\001\000\000\000\001\000\000\000\003\000\000\000\010\000\000\000\003\000\000\000\006\000\000\000\016\000\000\000\000\000\000\000\001\000\000\000\000\000\000\000\000\000\000\000\001\000\000\000\000\000\000\000\004\000\000\000\001\000\000\000\001\000\000\000\001\000\000\000\001\000\000\000\020\000\000\000\016\000\000\000\000\000\000\000\000\000\000\000\023\000\000\000\001\000\000\000\000\000\000\000\001\000\000\000\007\000\000\000\001\000\000\000\004\000\000\000\002\000\000\000\006\000\000\000\000\000\000\000\001\000\000\000\006\000\000\000\000\000\000\000\016\000\000\000\003\000\000\000\000\000\000\000 \000\000\000\001\000\000\000\006\000\000\000\003\000\000\000\001\000\000\000\006\000\000\000\004\000\000\000\005\000\000\000\000\000\000\000\005\000\000\000\004\000\000\000\000\000\000\000\000\000\000\000\001\000\000\000\003\000\000\000\013\000\000\000\001\000\000\000\000\000\000\000\000\000\000\000\016\000\000\000\000\000\000\000\001\000\000\000\000\000\000\000\000\000\000\000\001\000\000\000\002\000\000\000\002\000\000\000\000\000\000\000\000\000\000\000\001\000\000\000\000\000\000\000\001\000\000\000\003\000\000\000\013\000\000\000\002\000\000\000\006\000\000\000\013\000\000\000\001\000\000\000\021\000\000\000\000\000\000\000\016\000\000\000\000\000\000\000\014\000\000\000\004\000\000\000\001\000\000\000\000\000\000\000\000\000\000\000\000\000\000\000\007\000\000\000 \000\000\000\001\000\000\000\000\000\000\000\010\000\000\000\003\000\000\000\001\000\000\000\001\000\000\000\000\000\000\000\000\000\000\000\n\000\000\000\002\000\000\000\001\000\000\000\n\000\000\000\001\000\000\000\000\000\000\000\000\000\000\000\000\000\000\000\001\000\000\000\000\000\000\000\000\000\000\000\001\000\000\000\002\000\000\000\001\000\000\000\007\000\000\000\004\000\000\000\003\000\000\000\000\000\000\000\003\000\000\000\001\000\000\000\022\000\000\000\000\000\000\000\000\000\000\000\000\000\000\000\002\000\000\000\000\000\000\000\001\000\000\000\000\000\000\000\n\000\000\000\000\000\000\000\001\000\000\000\010\000\000\000\001\000\000\000\006\000\000\000&\000\000\000\005\000\000\000\000\000\000\000\003\000\000\000\000\000\000\000\023\000\000\000\016\000\000\000\001\000\000\000\000\000\000\000\000\000\000\000\001\000\000\000\004\000\000\000\000\000\000\000\005\000\000\000\n\000\000\000\004\000\000\000\002\000\000\000\001\000\000\000\002\000\000\000\000\000\000\000\004\000\000\000\000\000\000\000\002\000\000\000\006\000\000\000\014\000\000\000\014\000\000\000\001\000\000\000\014\000\000\000\014\000\000\000\013\000\000\000\014\000\000\000\001\000\000\000\002\000\000\000\003\000\000\000\002\000\000\000\000\000\000\000\000\000\000\000\001\000\000\000\020\000\000\000\021\000\000\000\000\000\000\000\t\000\000\000\000\000\000\000\013\000\000\000\003\000\000\000\t\000\000\000\004\000\000\000\022\000\000\000\000\000\000\000\007\000\000\000\001\000\000\000\000\000\000\000 \000\000\000\002\000\000\000\006\000\000\000\007\000\000\000\001\000\000\000\000\000\000\000\001\000\000\000\000\000\000\000\000\000\000\000\001\000\000\000\001\000\000\000\006\000\000\000\004\000\000\000\001\000\000\000\001\000\000\000\003\000\000\000\007\000\000\000\002\000\000\000\002\000\000\000\000\000\000\000\001\000\000\000\001\000\000\000\001\000\000\000\002\000\000\000\000\000\000\000\001\000\000\000\000\000\000\000\003\000\000\000\001\000\000\000\001\000\000\000\016\000\000\000\000\000\000\000\000\000\000\000\001\000\000\000\002\000\000\000\000\000\000\000\000\000\000\000\000\000\000\000\001\000\000\000\002\000\000\000\006\000\000\000\000\000\000\000\002\000\000\000\010\000\000\000\000\000\000\000\t\000\000\000\001\000\000\000\002\000\000\000\014\000\000\000\000\000\000\000\017\000\000\000\007\000\000\000\001\000\000\000\000\000\000\000\000\000\000\000\007\000\000\000\002\000\000\000\003\000\000\000\002\000\000\000\025\000\000\000\001\000\000\000\002\000\000\000\001\000\000\000\'\000\000\000+\000\000\000\000\000\000\000\001\000\000\000\006\000\000\000\003\000\000\000\000\000\000\000\n\000\000\000\004\000\000\000\004\000\000\000\007\000\000\000\034\000\000\000\002\000\000\000\007\000\000\000\020\000\000\000\002\000\000\000\001\000\000\000\000\000\000\000\000\000\000\000\004\000\000\000\001\000\000\000\017\000\000\000\004\000\000\000\021\000\000\000\000\000\000\000\014\000\000\000\022\000\000\000\006\000\000\000\004\000\000\000\001\000\000\000\002\000\000\000\001\000\000\000\000\000\000\000\000\000\000\000\000\000\000\000\000\000\000\000\002\000\000\000\004\000\000\000\000\000\000\000\004\000\000\000\010\000\000\000\010\000\000\000\000\000\000\000\032\000\000\000\002\000\000\000\001\000\000\000\000\000\000\000\023\000\000\000\000\000\000\000\001\000\000\000\001\000\000\000\000\000\000\000\002\000\000\000\004\000\000\000\002\000\000\000\004\000\000\000\000\000\000\000\000\000\000\000\001\000\000\000\000\000\000\000\000\000\000\000\000\000\000\000\017\000\000\000\001\000\000\000\002\000\000\000\001\000\000\000\004\000\000\000\007\000\000\000\004\000\000\000\021\000\000\000\001\000\000\000\020\000\000\000\000\000\000\000\006\000\000\000\013\000\000\000\003\000\000\000\000\000\000\000\025\000\000\000\030\000\000\000\000\000\000\000\002\000\000\000\001\000\000\000\016\000\000\000\007\000\000\000\000\000\000\000\020\000\000\000\001\000\000\000\000\000\000\000\002\000\000\000\003\000\000\000\000\000\000\000\000\000\000\000\000\000\000\000\001\000\000\000\000\000\000\000\001\000\000\000\000\000\000\000\000\000\000\000\000\000\000\000\001\000\000\000\001\000\000\000\002\000\000\000\002\000\000\000\007\000\000\000\000\000\000\000\001\000\000\000\000\000\000\000\001\000\000\000\000\000\000\000\003\000\000\000\004\000\000\000\000\000\000\000\013\000\000\000\002\000\000\000\001\000\000\000\003\000\000\000\001\000\000\000\000\000\000\000\021\000\000\000\003\000\000\000\002\000\000\000\001\000\000\000\003\000\000\000\003\000\000\000\000\000\000\000\001\000\000\000\000\000\000\000\016\000\000\000\010\000\000\000\006\000\000\000\000\000\000\000\001\000\000\000\000\000\000\000\003\000\000\000\001\000\000\000\002\000\000\000\022\000\000\000\010\000\000\000\031\000\000\000\006\000\000\000\t\000\000\000\000\000\000\000\000\000\000\000\001\000\000\000\005\000\000\000\003\000\000\000\006\000\000\000\002\000\000\000\003\000\000\000\027\000\000\000\001\000\000\000\027\000\000\000\000\000\000\000\000\000\000\000\t\000\000\000\'\000\000\000\t\000\000\000\005\000\000\000\001\000\000\000\014\000\000\000\007\000\000\000\002\000\000\000\n\000\000\000\005\000\000\000\004\000\000\000\007\000\000\000\002\000\000\000\007\000\000\000\000\000\000\000\007\000\000\000\000\000\000\000\003\000\000\000\n\000\000\000\003\000\000\000\n\000\000\000\001\000\000\000\003\000\000\000\024\000\000\000\006\000\000\000\t\000\000\000\006\000\000\000\001\000\000\000\003\000\000\000\n\000\000\000\r\000\000\000\000\000\000\000\002\000\000\000\007\000\000\000\n\000\000\000\001\000\000\000\r\000\000\000\003\000\000\000\006\000\000\000\013\000\000\000\001\000\000\000\000\000\000\000\003\000\000\000\016\000\000\000\001\000\000\000\000\000\000\000\000\000\000\000\000\000\000\000\001\000\000\000\002\000\000\000\000\000\000\000\001\000\000\000\000\000\000\000\003\000\000\000\000\000\000\000\001\000\000\000\001\000\000\000\002\000\000\000\000\000\000\000\007\000\000\000\000\000\000\000\000\000\000\000\003\000\000\000\000\000\000\000\010\000\000\000\r\000\000\000\020\000\000\000\001\000\000\000\r\000\000\000\004\000\000\000\000\000\000\000\000\000\000\000\000\000\000\000\000\000\000\000\002\000\000\000\001\000\000\000\017\000\000\000\t\000\000\000\n\000\000\000\001\000\000\000\007\000\000\000\000\000\000\000\004\000\000\000\000\000\000\000\000\000\000\000\000\000\000\000\001\000\000\000\000\000\000\000\002\000\000\000\004\000\000\000\007\000\000\000\003\000\000\000\001\000\000\000\007\000\000\000\007\000\000\000\003\000\000\000\002\000\000\000\001\000\000\000\n\000\000\000\005\000\000\000\001\000\000\000\002\000\000\000\000\000\000\000\r\000\000\000\005\000\000\000\001\000\000\000\004\000\000\000\013\000\000\000\000\000\000\000\001\000\000\000\000\000\000\000\001\000\000\000\002\000\000\000\000\000\000\000\002\000\000\000\004\000\000\000\000\000\000\000\001\000\000\000\002\000\000\000\003\000\000\000\r\000\000\000\001\000\000\000\027\000\000\000\002\000\000\000\007\000\000\000\017\000\000\000\001\000\000\000\r\000\000\000\000\000\000\000\022\000\000\000\000\000\000\000\000\000\000\000\000\000\000\000\000\000\000\000\000\000\000\000\000\000\000\000\000\000\000\000\006\000\000\000\001\000\000\000\003\000\000\000$\000\000\000\001\000\000\000\002\000\000\000\004\000\000\000\004\000\000\000\001\000\000\000\002\000\000\000\000\000\000\000\023\000\000\000\004\000\000\000\001\000\000\000\002\000\000\000\000\000\000\000\000\000\000\000\000\000\000\000\002\000\000\000\014\000\000\000\023\000\000\000\010\000\000\000\001\000\000\000\000\000\000\000\014\000\000\000\001\000\000\000\002\000\000\000\002\000\000\000\000\000\000\000\000\000\000\000\n\000\000\000\001\000\000\000\002\000\000\000\014\000\000\000\006\000\000\000\013\000\000\000\020\000\000\000\014\000\000\000\001\000\000\000\004\000\000\000\000\000\000\000\016\000\000\000\000\000\000\000\001\000\000\000\000\000\000\000\004\000\000\000\001\000\000\000\002\000\000\000\020\000\000\000\000\000\000\000\n\000\000\000\003\000\000\000\013\000\000\000 \000\000\000\021\000\000\000\001\000\000\000\001\000\000\000\000\000\000\000\035\000\000\000\001\000\000\000\001\000\000\000\000\000\000\000\005\000\000\000\000\000\000\000\005\000\000\000\000\000\000\000\000\000\000\000\r\000\000\000\001\000\000\000\002\000\000\000\005\000\000\000\007\000\000\000\003\000\000\000\001\000\000\000\007\000\000\000\000\000\000\000\023\000\000\000\001\000\000\000\003\000\000\000\002\000\000\000\004\000\000\000\000\000\000\000\t\000\000\000\003\000\000\000\000\000\000\000\005\000\000\000\001\000\000\000\000\000\000\000\000\000\000\000\010\000\000\000\014\000\000\000\003\000\000\000\000\000\000\000\000\000\000\000\001\000\000\000\004\000\000\000\t\000\000\000?\000\000\000\000\000\000\000\036\000\000\000\t\000\000\000\000\000\000\000\002\000\000\000\001\000\000\000\003\000\000\000\n\000\000\000\003\000\000\000\013\000\000\000\000\000\000\000\010\000\000\000\001\000\000\000\r\000\000\000\000\000\000\000\007\000\000\000\001\000\000\000\003\000\000\000\013\000\000\000\013\000\000\000.\000\000\000\016\000\000\000\000\000\000\000\001\000\000\000\030\000\000\000\002\000\000\000\001\000\000\000\005\000\000\000\001\000\000\000\000\000\000\000\001\000\000\000\005\000\000\000\001\000\000\000\002\000\000\000\010\000\000\000\002\000\000\000\003\000\000\000\001\000\000\000\000\000\000\000\005\000\000\000\000\000\000\000#\000\000\000\005\000\000\000\001\000\000\000\n\000\000\000\000\000\000\000\005\000\000\000\000\000\000\000\006\000\000\000\002\000\000\000\000\000\000\000\003\000\000\000\023\000\000\000\033\000\000\000\004\000\000\000\004\000\000\000\t\000\000\000\001\000\000\000\001\000\000\000\004\000\000\000\005\000\000\000\010\000\000\000\005\000\000\000\004\000\000\000\010\000\000\000\005\000\000\000\t\000\000\000\001\000\000\000\005\000\000\000\003\000\000\000\000\000\000\000\005\000\000\000\000\000\000\000\014\000\000\000\005\000\000\000\000\000\000\000\002\000\000\000\010\000\000\000\027\000\000\000\r\000\000\000\001\000\000\000\004\000\000\000\004\000\000\000\001\000\000\000\005\000\000\000\002\000\000\000\000\000\000\000\001\000\000\000\024\000\000\000\n\000\000\000\010\000\000\000\004\000\000\000\001\000\000\000\000\000\000\000\000\000\000\000\014\000\000\000\002\000\000\000\013\000\000\000\014\000\000\000\010\000\000\000\004\000\000\000\000\000\000\000\016\000\000\000\000\000\000\000\000\000\000\000\001\000\000\000\t\000\000\000\000\000\000\000\004\000\000\000\n\000\000\000\010\000\000\000\010\000\000\000\t\000\000\000\001\000\000\000\004\000\000\000\000\000\000\000\000\000\000\000\001\000\000\000\005\000\000\000\002\000\000\000\000\000\000\000\n\000\000\000\000\000\000\000\006\000\000\000\000\000\000\000\n\000\000\000\003\000\000\000\000\000\000\000\002\000\000\000\001\000\000\000\021\000\000\000\000\000\000\000\001\000\000\000\002\000\000\000\016\000\000\000\000\000\000\000\000\000\000\000\000\000\000\000\000\000\000\000\001\000\000\000\000\000\000\000\000\000\000\000\000\000\000\000\023\000\000\000\004\000\000\000\004\000\000\000\006\000\000\000\r\000\000\000\001\000\000\000\002\000\000\000\000\000\000\000\001\000\000\000\001\000\000\000\007\000\000\000\002\000\000\000\001\000\000\000\r\000\000\000\025\000\000\000\002\000\000\000\003\000\000\000\000\000\000\000\001\000\000\000\001\000\000\000\004\000\000\000\000\000\000\000\001\000\000\000\016\000\000\000\001\000\000\000\000\000\000\000\010\000\000\000\001\000\000\000\000\000\000\000\n\000\000\000\000\000\000\000\002\000\000\000\n\000\000\000\000\000\000\000\001\000\000\000\000\000\000\000\007\000\000\000\t\000\000\000\007\000\000\000\002\000\000\000\000\000\000\000\001\000\000\000\000\000\000\000\000\000\000\000\002\000\000\000\001\000\000\000\000\000\000\000\000\000\000\000\002\000\000\000\001\000\000\000\003\000\000\000\007\000\000\000\004\000\000\000\007\000\000\000\014\000\000\000\020\000\000\000\004\000\000\000\002\000\000\000\001\000\000\000\001\000\000\000\000\000\000\000\021\000\000\000\000\000\000\000\001\000\000\000\017\000\000\000\013\000\000\000\004\000\000\000\007\000\000\000\010\000\000\000\000\000\000\000\013\000\000\000\000\000\000\000\001\000\000\000\020\000\000\000\016\000\000\000\000\000\000\000\001\000\000\000\001\000\000\000\004\000\000\000!\000\000\000\000\000\000\000\002\000\000\000\001\000\000\000\020\000\000\000\001\000\000\000\000\000\000\000\022\000\000\000\000\000\000\000\006\000\000\000\023\000\000\000\035\000\000\000\000\000\000\000\000\000\000\000\n\000\000\000\001\000\000\000\006\000\000\000\001\000\000\000\004\000\000\000\002\000\000\000\005\000\000\000\t\000\000\000\001\000\000\000\003\000\000\000\002\000\000\000\017\000\000\000\r\000\000\000\010\000\000\000\007\000\000\000\000\000\000\000\001\000\000\000\010\000\000\000\005\000\000\000\004\000\000\000\005\000\000\000\001\000\000\000\005\000\000\000\001\000\000\000\000\000\000\000\031\000\000\000\007\000\000\000\003\000\000\000\005\000\000\000\014\000\000\000\014\000\000\000\025\000\000\000\014\000\000\000\t\000\000\000\001\000\000\000\003\000\000\000\007\000\000\000\002\000\000\000\n\000\000\000\010\000\000\000\000\000\000\000\005\000\000\000\000\000\000\000\003\000\000\000\003\000\000\000\001\000\000\000\002\000\000\000\014\000\000\000\n\000\000\000\003\000\000\000\006\000\000\000\000\000\000\000\032\000\000\000\000\000\000\000\002\000\000\000\017\000\000\000\004\000\000\000\006\000\000\000\017\000\000\000\t\000\000\000\010\000\000\000\006\000\000\000\017\000\000\000\001\000\000\000\017\000\000\000\001\000\000\000\001\000\000\000\006\000\000\000\000\000\000\000\010\000\000\000\022\000\000\000\004\000\000\000\014\000\000\000\024\000\000\000\004\000\000\000\000\000\000\000\001\000\000\000\024\000\000\000\001\000\000\000\000\000\000\000\006\000\000\000\001\000\000\000\004\000\000\000\002\000\000\000\n\000\000\000\005\000\000\000\003\000\000\000\010\000\000\000\t\000\000\000\000\000\000\000\001\000\000\000\004\000\000\000\014\000\000\000\010\000\000\000\023\000\000\000\006\000\000\000\000\000\000\000\004\000\000\000\037\000\000\000\001\000\000\000\032\000\000\000\002\000\000\000\000\000\000\000\000\000\000\000\030\000\000\000\001\000\000\000\000\000\000\000\005\000\000\000\001\000\000\000\002\000\000\000\001\000\000\000\005\000\000\000\004\000\000\000\001\000\000\000\000\000\000\000\010\000\000\000\000\000\000\000\017\000\000\000\004\000\000\000\017\000\000\000\003\000\000\000\r\000\000\000\001\000\000\000\006\000\000\000\006\000\000\000\006\000\000\000\n\000\000\000\003\000\000\000\t\000\000\000\r\000\000\000\t\000\000\000\t\000\000\000\005\000\000\000\000\000\000\000\001\000\000\000\002\000\000\000\031\000\000\000\000\000\000\000\r\000\000\000\000\000\000\000\006\000\000\000\001\000\000\000\002\000\000\000\007\000\000\000\n\000\000\000\006\000\000\000\007\000\000\000\005\000\000\000*\000\000\000\002\000\000\000\n\000\000\000\001\000\000\000\000\000\000\000\000\000\000\000\000\000\000\000\000\000\000\000\005\000\000\000\006\000\000\000\007\000\000\000\001\000\000\000\000\000\000\000\005\000\000\000\014\000\000\000\007\000\000\000\001\000\000\000\000\000\000\000\001\000\000\000\000\000\000\000\000\000\000\000\000\000\000\000\002\000\000\000\n\000\000\000\001\000\000\000\004\000\000\000\000\000\000\000\010\000\000\000\000\000\000\000\t\000\000\000\004\000\000\000\004\000\000\000\001\000\000\000\t\000\000\000\002\000\000\000\003\000\000\000\000\000\000\000\014\000\000\000\014\000\000\0000\000\000\000\n\000\000\000\013\000\000\000\t\000\000\000\000\000\000\000\017\000\000\000\001\000\000\000\007\000\000\000\000\000\000\000\005\000\000\000\003\000\000\000\017\000\000\000\013\000\000\000\004\000\000\000\005\000\000\000\013\000\000\000\002\000\000\000\016\000\000\000\000\000\000\000\001\000\000\000\000\000\000\000\001\000\000\000\021\000\000\000\001\000\000\000\002\000\000\000\000\000\000\000\006\000\000\000\016\000\000\000\000\000\000\000\000\000\000\000\000\000\000\000\023\000\000\000\001\000\000\000\002\000\000\000\000\000\000\000\001\000\000\000\003\000\000\000\001\000\000\000\000\000\000\000\004\000\000\000\000\000\000\000\001\000\000\000\004\000\000\000\020\000\000\000\002\000\000\000\021\000\000\000\000\000\000\000\022\000\000\000\001\000\000\000\010\000\000\000\032\000\000\000\001\000\000\000\001\000\000\000\000\000\000\000\010\000\000\000\004\000\000\000\035\000\000\000\002\000\000\000\010\000\000\000\r\000\000\000\001\000\000\000\t\000\000\000\010\000\000\000\010\000\000\000\000\000\000\000\010\000\000\000\026\000\000\000\006\000\000\000\001\000\000\000\005\000\000\000\000\000\000\000\003\000\000\000\004\000\000\000\001\000\000\000\000\000\000\000\024\000\000\000\n\000\000\000\r\000\000\000\006\000\000\000\006\000\000\000\001\000\000\000\006\000\000\000\002\000\000\000\006\000\000\000\003\000\000\000\006\000\000\000\005\000\000\000\000\000\000\000\000\000\000\000\031\000\000\000\007\000\000\000\001\000\000\000\r\000\000\000\005\000\000\000\004\000\000\000\005\000\000\000\003\000\000\000\002\000\000\000\000\000\000\000\000\000\000\000\005\000\000\000\013\000\000\000\004\000\000\000\003\000\000\000\n\000\000\000\001\000\000\000\003\000\000\000\004\000\000\000\010\000\000\000\017\000\000\000\013\000\000\0007\000\000\000\000\000\000\000\000\000\000\000\033\000\000\000\000\000\000\000\001\000\000\000\002\000\000\000\002\000\000\000\001\000\000\000\000\000\000\000\000\000\000\000\000\000\000\000\001\000\000\000\000\000\000\000\000\000\000\000\010\000\000\000\t\000\000\000\007\000\000\000\010\000\000\000\001\000\000\000\007\000\000\000\001\000\000\000\002\000\000\000\000\000\000\000+\000\000\000\000\000\000\000\000\000\000\000\000\000\000\000\000\000\000\000\001\000\000\000\000\000\000\000\002\000\000\000\004\000\000\000\002\000\000\000\001\000\000\000\000\000\000\000\020\000\000\000\000\000\000\000\n\000\000\000\001\000\000\000\021\000\000\000\001\000\000\000\000\000\000\000\007\000\000\000\003\000\000\000\000\000\000\000*\000\000\000\000\000\000\000\001\000\000\000\000\000\000\000)\000\000\000\007\000\000\000\"\000\000\000\001\000\000\000\004\000\000\000\021\000\000\000\r\000\000\000\001\000\000\000\002\000\000\000\r\000\000\000\000\000\000\000\000\000\000\000\033\000\000\000\002\000\000\000\005\000\000\000\000\000\000\000\000\000\000\000\001\000\000\000\t\000\000\000\005\000\000\000\005\000\000\000\000\000\000\000\001\000\000\000\000\000\000\000\005\000\000\000\005\000\000\000\006\000\000\000\t\000\000\000\001\000\000\000\t\000\000\000\005\000\000\000\000\000\000\000\001\000\000\000(\000\000\000\002\000\000\000\000\000\000\000\006\000\000\000\005\000\000\000\003\000\000\000\000\000\000\000\005\000\000\000\006\000\000\000\001\000\000\000\004\000\000\000\005\000\000\000\005\000\000\000\005\000\000\000\005\000\000\000\001\000\000\000\003\000\000\000\016\000\000\000\005\000\000\000\000\000\000\000\r\000\000\000\001\000\000\000\000\000\000\000\005\000\000\000\001\000\000\000\001\000\000\000\005\000\000\000\003\000\000\000\001\000\000\000\030\000\000\000\002\000\000\000\000\000\000\000\000\000\000\000\003\000\000\000\001\000\000\000\006\000\000\000\001\000\000\000\003\000\000\000\t\000\000\000\004\000\000\000\004\000\000\000\000\000\000\000\000\000\000\000\014\000\000\000\014\000\000\000\t\000\000\000\003\000\000\000\005\000\000\000\001\000\000\000\n\000\000\000\000\000\000\000\023\000\000\000\016\000\000\000\003\000\000\000\004\000\000\000\000\000\000\000\001\000\000\000\002\000\000\000\006\000\000\000\003\000\000\000\023\000\000\000\010\000\000\000\001\000\000\000\000\000\000\000\000\000\000\000\n\000\000\000\002\000\000\000\t\000\000\000\001\000\000\000\000\000\000\000\n\000\000\000\n\000\000\000\t\000\000\000\n\000\000\000\003\000\000\000\n\000\000\000\017\000\000\000\002\000\000\000\000\000\000\000(\000\000\000\017\000\000\000\000\000\000\000\000\000\000\000\003\000\000\000\001\000\000\000\003\000\000\000\003\000\000\000\003\000\000\000\017\000\000\000\001\000\000\000\002\000\000\000\001\000\000\000\002\000\000\000\003\000\000\000\002\000\000\000\001\000\000\000\003\000\000\000\013\000\000\000\003\000\000\000\020\000\000\000\013\000\000\000\004\000\000\000\001\000\000\000\004\000\000\000\000\000\000\000\021\000\000\000\000\000\000\000\022\000\000\000\000\000\000\000\001\000\000\000\000\000\000\000\004\000\000\000\001\000\000\000\000\000\000\000\000\000\000\000\000\000\000\000\023\000\000\000\000\000\000\000\001\000\000\000\001\000\000\000\000\000\000\000\001\000\000\000\001\000\000\000\000\000\000\000\027\000\000\000\001\000\000\000\020\000\000\000\002\000\000\000\003\000\000\000\010\000\000\000\000\000\000\000\003\000\000\000\002\000\000\000\006\000\000\000\000\000\000\000\004\000\000\000\000\000\000\000%\000\000\000\010\000\000\000\002\000\000\000\001\000\000\000\001\000\000\000\004\000\000\000\002\000\000\000\004\000\000\000\003\000\000\000\010\000\000\000\010\000\000\000\000\000\000\000\000\000\000\000\000\000\000\000\000\000\000\000\001\000\000\000\000\000\000\000\003\000\000\000\007\000\000\000\002\000\000\000\000\000\000\000\001\000\000\000\002\000\000\000\000\000\000\000\010\000\000\000\016\000\000\000\000\000\000\000\000\000\000\000\000\000\000\000\000\000\000\000\034\000\000\000\034\000\000\000\000\000\000\000\001\000\000\000\000\000\000\000\004\000\000\000\001\000\000\000\000\000\000\000\002\000\000\000\000\000\000\000\001\000\000\000\000\000\000\000\000\000\000\000\001\000\000\000\002\000\000\000\000\000\000\000\001\000\000\000\016\000\000\000\000\000\000\000\001\000\000\000\000\000\000\000\000\000\000\000\001\000\000\000\000\000\000\000\002\000\000\000\000\000\000\000\001\000\000\000\001\000\000\000\000\000\000\000\001\000\000\000\031\000\000\000\001\000\000\000\002\000\000\000\001\000\000\000\007\000\000\000\000\000\000\000\007\000\000\000\n\000\000\000\001\000\000\000\000\000\000\000\000\000\000\000\t\000\000\000\000\000\000\000\001\000\000\000\000\000\000\000\002\000\000\000\002\000\000\000\003\000\000\000\005\000\000\000\000\000\000\000\001\000\000\000\000\000\000\000\000\000\000\000\000\000\000\000\001\000\000\000\004\000\000\000\000\000\000\000\003\000\000\000\004\000\000\000\002\000\000\000\003\000\000\000\001\000\000\000\000\000\000\000\003\000\000\000\000\000\000\000\000\000\000\000\021\000\000\000\001\000\000\000\"\000\000\000\000\000\000\000\000\000\000\000\020\000\000\000\001\000\000\000\002\000\000\000\000\000\000\000\005\000\000\000\020\000\000\000\001\000\000\000\000\000\000\000\010\000\000\000\013\000\000\000\035\000\000\000\000\000\000\000\001\000\000\000\016\000\000\000\000\000\000\000\000\000\000\000\000\000\000\000\001\000\000\000\000\000\000\000\t\000\000\000\002\000\000\000\001\000\000\000\000\000\000\000\006\000\000\000\001\000\000\000\002\000\000\000\001\000\000\000\000\000\000\000\007\000\000\000\003\000\000\000\000\000\000\000\005\000\000\000\005\000\000\000\000\000\000\000\000\000\000\000\000\000\000\000\003\000\000\000\003\000\000\000\022\000\000\000\001\000\000\000\000\000\000\000\001\000\000\000\004\000\000\000\000\000\000\000\000\000\000\000\001\000\000\000\004\000\000\000\002\000\000\000\007\000\000\000\001\000\000\000\016\000\000\000\000\000\000\000\000\000\000\000\007\000\000\000\001\000\000\000\004\000\000\000\000\000\000\000\001\000\000\000\000\000\000\000\001\000\000\000\002\000\000\000\021\000\000\000\001\000\000\000\000\000\000\000\000\000\000\000\001\000\000\000\002\000\000\000\000\000\000\000\002\000\000\000\000\000\000\000\001\000\000\000\000\000\000\000\000\000\000\000\001\000\000\000\001\000\000\000\022\000\000\000\006\000\000\000\000\000\000\000\001\000\000\000\005\000\000\000\001\000\000\000\001\000\000\000\026\000\000\000\001\000\000\000\006\000\000\000\004\000\000\000\002\000\000\000\007\000\000\000\010\000\000\000\000\000\000\000\000\000\000\000\004\000\000\000\001\000\000\000\003\000\000\000\003\000\000\000\000\000\000\000\001\000\000\000\002\000\000\000\000\000\000\000\000\000\000\000\000\000\000\000\000\000\000\000\000\000\000\000\n\000\000\000\003\000\000\000\010\000\000\000\006\000\000\000\000\000\000\000\021\000\000\000\003\000\000\000\013\000\000\000\000\000\000\000\005\000\000\000\003\000\000\000\032\000\000\000\001\000\000\000\000\000\000\000\005\000\000\000\000\000\000\000\004\000\000\000\005\000\000\000\001\000\000\000\002\000\000\000\001\000\000\000\007\000\000\000\002\000\000\000\003\000\000\000\001\000\000\000\t\000\000\000\004\000\000\000\004\000\000\000\005\000\000\000\007\000\000\000\000\000\000\000\000\000\000\000\001\000\000\000\004\000\000\000\n\000\000\000\004\000\000\000\n\000\000\000\t\000\000\000\t\000\000\000\002\000\000\000\000\000\000\000\001\000\000\0001\000\000\000\020\000\000\000\000\000\000\000\005\000\000\000\000\000\000\000\n\000\000\000\r\000\000\000\005\000\000\000\n\000\000\000\005\000\000\000\021\000\000\000\001\000\000\000\000\000\000\000\003\000\000\000\013\000\000\000\016\000\000\000\001\000\000\000\001\000\000\000\002\000\000\000\000\000\000\000\000\000\000\000\001\000\000\000\000\000\000\000\000\000\000\000\000\000\000\000\001\000\000\000\002\000\000\000\000\000\000\000\002\000\000\000\t\000\000\000\004\000\000\000\006\000\000\000\001\000\000\000\000\000\000\000\002\000\000\000\007\000\000\000\021\000\000\000\000\000\000\000\000\000\000\000\001\000\000\000\020\000\000\000\001\000\000\000\000\000\000\000\022\000\000\000\000\000\000\000\001\000\000\000\036\000\000\000\001\000\000\000\000\000\000\000\000\000\000\000\006\000\000\000\002\000\000\000\003\000\000\000\001\000\000\000\007\000\000\000\000\000\000\000\000\000\000\000\001\000\000\000\004\000\000\000\003\000\000\000\000\000\000\000\000\000\000\000\000\000\000\000\000\000\000\000\004\000\000\000\001\000\000\000\001\000\000\000\013\000\000\000\002\000\000\000\n\000\000\000\003\000\000\000\001\000\000\000\000\000\000\000\001\000\000\000\020\000\000\000\004\000\000\000\000\000\000\000\034\000\000\000)\000\000\000\022\000\000\000\001\000\000\000\003\000\000\000\000\000\000\000\000\000\000\000\003\000\000\000\003\000\000\000\000\000\000\000\000\000\000\000\000\000\000\000\002\000\000\000\000\000\000\000\001\000\000\000\002\000\000\000\000\000\000\000\001\000\000\000\003\000\000\000\014\000\000\000\001\000\000\000\002\000\000\000\014\000\000\000\003\000\000\000\000\000\000\000\033\000\000\000\t\000\000\000\n\000\000\000\001\000\000\000\002\000\000\000\001\000\000\000\010\000\000\000\004\000\000\000\000\000\000\000\t\000\000\000\017\000\000\000\005\000\000\000\005\000\000\000\010\000\000\000\001\000\000\000\000\000\000\000\006\000\000\000\013\000\000\000\001\000\000\000\002\000\000\000\000\000\000\000\016\000\000\000\000\000\000\000\006\000\000\000\001\000\000\000\002\000\000\000\000\000\000\000\005\000\000\000\005\000\000\000\001\000\000\000\002\000\000\000\005\000\000\000\001\000\000\000\000\000\000\000\003\000\000\000\007\000\000\000\005\000\000\000\005\000\000\000\000\000\000\000\005\000\000\000\005\000\000\000\000\000\000\000\016\000\000\000\000\000\000\000\000\000\000\000\001\000\000\000\000\000\000\000\000\000\000\000\000\000\000\000\004\000\000\000\000\000\000\000\001\000\000\000\000\000\000\000\000\000\000\000\001\000\000\000\021\000\000\000\000\000\000\000\001\000\000\000\000\000\000\000\022\000\000\000\006\000\000\000\001\000\000\000\005\000\000\000\005\000\000\000\001\000\000\000\002\000\000\000\005\000\000\000\001\000\000\000\000\000\000\000\000\000\000\000\022\000\000\000\002\000\000\000\001\000\000\000\000\000\000\000\000\000\000\000\001\000\000\000\000\000\000\000\003\000\000\000\000\000\000\000#\000\000\000\002\000\000\000\000\000\000\000\001\000\000\000\000\000\000\000\000\000\000\000\004\000\000\000\003\000\000\000\000\000\000\000\020\000\000\000\036\000\000\000\001\000\000\000\003\000\000\000\001\000\000\000\003\000\000\000\000\000\000\000\001\000\000\000\000\000\000\000\000\000\000\000\001\000\000\000\002\000\000\000\002\000\000\000\021\000\000\000\001\000\000\000\000\000\000\000\000\000\000\000\001\000\000\000\002\000\000\000\007\000\000\000\010\000\000\000\004\000\000\000\010\000\000\000\001\000\000\000\016\000\000\000\003\000\000\000\004\000\000\000\004\000\000\000\001\000\000\000\000\000\000\000\004\000\000\000\002\000\000\000\001\000\000\000\000\000\000\000\000\000\000\000\003\000\000\000\002\000\000\000\001\000\000\000\003\000\000\000\002\000\000\000\002\000\000\000\r\000\000\000\"\000\000\000\001\000\000\000\002\000\000\000\002\000\000\000\004\000\000\000\021\000\000\000\010\000\000\000\006\000\000\000\000\000\000\000-\000\000\000\001\000\000\000\r\000\000\000\004\000\000\000\006\000\000\000\000\000\000\000\006\000\000\000\000\000\000\000\001\000\000\000\005\000\000\000\005\000\000\000\001\000\000\000\005\000\000\000\004\000\000\000\004\000\000\000\005\000\000\000\001\000\000\000\000\000\000\000\000\000\000\000\000\000\000\000\005\000\000\000\005\000\000\000\000\000\000\000\025\000\000\000\000\000\000\000\005\000\000\000\005\000\000\000\004\000\000\000\017\000\000\000\020\000\000\000\005\000\000\000\003\000\000\000\002\000\000\000\003\000\000\000\001\000\000\000\003\000\000\000\003\000\000\000\004\000\000\000\003\000\000\000\003\000\000\000\n\000\000\000\003\000\000\000\t\000\000\000\003\000\000\000\t\000\000\000\003\000\000\000\t\000\000\000\006\000\000\000\t\000\000\000\024\000\000\000\005\000\000\000\004\000\000\000\006\000\000\000\t\000\000\000\001\000\000\000\002\000\000\000\006\000\000\000\003\000\000\000\000\000\000\000\002\000\000\000\003\000\000\000\006\000\000\000\002\000\000\000\004\000\000\000\000\000\000\000\004\000\000\000\024\000\000\000\003\000\000\000\030\000\000\000\024\000\000\000\001\000\000\000\024\000\000\000\005\000\000\000\014\000\000\000\002\000\000\000\t\000\000\000\t\000\000\000\000\000\000\000\001\000\000\000\t\000\000\000\r\000\000\000\013\000\000\000\013\000\000\000\t\000\000\000\026\000\000\000\t\000\000\000\t\000\000\000\013\000\000\000\005\000\000\000\t\000\000\000\003\000\000\000\037\000\000\000\001\000\000\000\001\000\000\000\007\000\000\000\024\000\000\000\001\000\000\000\n\000\000\000\000\000\000\000\000\000\000\000\000\000\000\000\001\000\000\000\002\000\000\000\013\000\000\000\004\000\000\000\002\000\000\000\r\000\000\000\022\000\000\000\007\000\000\000\001\000\000\000\000\000\000\000\001\000\000\000\000\000\000\000\000\000\000\000\001\000\000\000\000\000\000\000\021\000\000\000\001\000\000\000\002\000\000\000\002\000\000\000\000\000\000\000\016\000\000\000\000\000\000\000\001\000\000\000\000\000\000\000\001\000\000\000\001\000\000\000\016\000\000\000\000\000\000\000\000\000\000\000\007\000\000\000\001\000\000\000\000\000\000\000\000\000\000\000\000\000\000\000\002\000\000\000\001\000\000\000\000\000\000\000\000\000\000\000\001\000\000\000\000\000\000\000\003\000\000\000\001\000\000\000\003\000\000\000\002\000\000\000\001\000\000\000\000\000\000\000\001\000\000\000\007\000\000\000\000\000\000\000\001\000\000\000\000\000\000\000\001\000\000\000\001\000\000\000\000\000\000\000\002\000\000\000\002\000\000\000\006\000\000\000\000\000\000\000\r\000\000\000\017\000\000\000\001\000\000\000\007\000\000\000\003\000\000\000\r\000\000\000\001\000\000\000\007\000\000\000\004\000\000\000\001\000\000\000\003\000\000\000\004\000\000\000\004\000\000\000\007\000\000\000\004\000\000\0006\000\000\000\003\000\000\000\001\000\000\000\r\000\000\000\000\000\000\000\005\000\000\000\r\000\000\000\001\000\000\000\010\000\000\000\r\000\000\000\003\000\000\000\001\000\000\000(\000\000\000\000\000\000\000\024\000\000\000\r\000\000\000\000\000\000\000\002\000\000\000\000\000\000\000\024\000\000\000\000\000\000\000\025\000\000\000\002\000\000\000\007\000\000\000\t\000\000\000\005\000\000\000\024\000\000\000\024\000\000\000\000\000\000\000\026\000\000\000\001\000\000\000\005\000\000\000\031\000\000\000\024\000\000\000\010\000\000\000\020\000\000\000\n\000\000\000\t\000\000\000\003\000\000\000\001\000\000\000\t\000\000\000\000\000\000\000\002\000\000\000\000\000\000\000\001\000\000\000\002\000\000\000\001\000\000\000\000\000\000\000\001\000\000\000\001\000\000\000\004\000\000\000%\000\000\000\000\000\000\000\001\000\000\000\000\000\000\000\001\000\000\000\000\000\000\000\000\000\000\000\000\000\000\000\004\000\000\000\001\000\000\000\000\000\000\000\001\000\000\000\000\000\000\000\000\000\000\000\001\000\000\000\004\000\000\000\001\000\000\000\000\000\000\000\013\000\000\000\004\000\000\000\021\000\000\000\001\000\000\000\002\000\000\000\003\000\000\000\001\000\000\000\013\000\000\000\003\000\000\000\001\000\000\000\003\000\000\000\r\000\000\000\001\000\000\000\000\000\000\000\r\000\000\000\000\000\000\000\013\000\000\000\016\000\000\000\004\000\000\000\001\000\000\000\000\000\000\000\001\000\000\000\000\000\000\000\000\000\000\000\001\000\000\000\001\000\000\000\001\000\000\000\001\000\000\000\016\000\000\000\000\000\000\000\001\000\000\000\000\000\000\000\000\000\000\000\001\000\000\000\023\000\000\000\001\000\000\000\006\000\000\000\003\000\000\000\005\000\000\000+\000\000\000\n\000\000\000\002\000\000\000\001\000\000\000\000\000\000\000\001\000\000\000\000\000\000\000\000\000\000\000\002\000\000\000\001\000\000\000\000\000\000\000\000\000\000\000\005\000\000\000\000\000\000\000\016\000\000\000\001\000\000\000\001\000\000\000\001\000\000\000\001\000\000\000\001\000\000\000\001\000\000\000\017\000\000\000\000\000\000\000\017\000\000\000\003\000\000\000\007\000\000\000\004\000\000\000\007\000\000\000\n\000\000\000\004\000\000\000\005\000\000\000\006\000\000\000\014\000\000\000\003\000\000\000\020\000\000\000\004\000\000\000\003\000\000\000=\000\000\000\004\000\000\000\002\000\000\000\010\000\000\000\020\000\000\000\001\000\000\000\n\000\000\000\000\000\000\000\013\000\000\000\006\000\000\000\001\000\000\000\003\000\000\000\002\000\000\000;\000\000\000\007\000\000\000\004\000\000\000\017\000\000\000\t\000\000\000\003\000\000\000\013\000\000\000\000\000\000\000\006\000\000\000\000\000\000\000\n\000\000\000\001\000\000\000\003\000\000\000\r\000\000\000\004\000\000\000\013\000\000\000\003\000\000\000\013\000\000\000\013\000\000\000\027\000\000\000\013\000\000\000\016\000\000\000\010\000\000\000\000\000\000\000\002\000\000\000\001\000\000\000\005\000\000\000\001\000\000\000\001\000\000\000\004\000\000\000\001\000\000\000\000\000\000\000\003\000\000\000\005\000\000\000\005\000\000\000\003\000\000\000\001\000\000\000\007\000\000\000\000\000\000\000\004\000\000\000\006\000\000\000\002\000\000\000\001\000\000\000\005\000\000\000\000\000\000\000\005\000\000\000\014\000\000\000\006\000\000\000\t\000\000\000\000\000\000\000\006\000\000\000\001\000\000\000\005\000\000\000\001\000\000\000\004\000\000\000\007\000\000\000\005\000\000\000\010\000\000\000\n\000\000\000\007\000\000\000\001\000\000\000\r\000\000\000&\000\000\000\025\000\000\000\001\000\000\000\000\000\000\000\005\000\000\000\000\000\000\000\002\000\000\000\n\000\000\000\001\000\000\000\030\000\000\000\000\000\000\000\002\000\000\000\002\000\000\000\n\000\000\000\000\000\000\000\001\000\000\000\000\000\000\000\025\000\000\000\005\000\000\000\000\000\000\000\022\000\000\000\002\000\000\000\001\000\000\000\020\000\000\000\007\000\000\000\t\000\000\000\n\000\000\000\000\000\000\000\001\000\000\000\000\000\000\000\001\000\000\000\000\000\000\000\001\000\000\000\t\000\000\000\t\000\000\000\005\000\000\000\003\000\000\000\004\000\000\000\010\000\000\000\006\000\000\000\r\000\000\000\002\000\000\000\003\000\000\000\017\000\000\000\001\000\000\000\n\000\000\000\002\000\000\000\t\000\000\000\007\000\000\000\003\000\000\000\005\000\000\000\001\000\000\000\t\000\000\000\002\000\000\000\n\000\000\000\000\000\000\000\017\000\000\000\013\000\000\000\013\000\000\000\001\000\000\000\005\000\000\000\001\000\000\000\000\000\000\000\036\000\000\000\n\000\000\000\014\000\000\000\000\000\000\000\000\000\000\000\014\000\000\000\002\000\000\000\007\000\000\000\t\000\000\000\014\000\000\000\013\000\000\000\003\000\000\000\000\000\000\000\001\000\000\000\n\000\000\000\022\000\000\000\004\000\000\000\003\000\000\000\004\000\000\000\017\000\000\000\001\000\000\000\003\000\000\000\010\000\000\000\017\000\000\000\001\000\000\000\000\000\000\000\000\000\000\000\000\000\000\000\000\000\000\000\000\000\000\000\002\000\000\000\t\000\000\000\t\000\000\000\t\000\000\000\001\000\000\000\003\000\000\000<\000\000\000\005\000\000\000\n\000\000\000\000\000\000\000\002\000\000\000\017\000\000\000\004\000\000\000\007\000\000\000\001\000\000\000\013\000\000\000\006\000\000\000\037\000\000\000\010\000\000\000\001\000\000\000\000\000\000\000\004\000\000\000\001\000\000\000\004\000\000\000\021\000\000\000\006\000\000\000\013\000\000\000\024\000\000\000\007\000\000\000\024\000\000\000\014\000\000\000\004\000\000\000\001\000\000\000\000\000\000\000\000\000\000\000\035\000\000\000\006\000\000\000\001\000\000\000\001\000\000\000\000\000\000\000\000\000\000\000\001\000\000\000\000\000\000\000\013\000\000\000\004\000\000\000\021\000\000\000\001\000\000\000\020\000\000\000$\000\000\000\003\000\000\000\007\000\000\000\003\000\000\000\n\000\000\000\001\000\000\000\000\000\000\000\002\000\000\000\001\000\000\000\004\000\000\000\002\000\000\000\000\000\000\000\001\000\000\000\006\000\000\000\000\000\000\000\017\000\000\000\020\000\000\000\002\000\000\000\001\000\000\000\002\000\000\000\000\000\000\000\001\000\000\000\002\000\000\000\020\000\000\000\021\000\000\000\022\000\000\000\003\000\000\000\000\000\000\000\005\000\000\000\000\000\000\000\005\000\000\000\000\000\000\000\t\000\000\000\001\000\000\000\n\000\000\000\000\000\000\000\001\000\000\000\000\000\000\000\002\000\000\000\005\000\000\000\000\000\000\000\r\000\000\000\005\000\000\000\004\000\000\000\001\000\000\000\010\000\000\000\005\000\000\000\000\000\000\000\000\000\000\000\000\000\000\000\000\000\000\000\001\000\000\000\006\000\000\000\004\000\000\000\014\000\000\000\002\000\000\000\000\000\000\000\004\000\000\000\t\000\000\000\003\000\000\000\n\000\000\000\017\000\000\000\000\000\000\000\n\000\000\000\005\000\000\000\r\000\000\000\n\000\000\000\003\000\000\000\001\000\000\000\002\000\000\000\000\000\000\000\n\000\000\000\t\000\000\000\000\000\000\000\003\000\000\000\013\000\000\000\021\000\000\000\006\000\000\000\000\000\000\000\004\000\000\000\000\000\000\000\022\000\000\000\000\000\000\000\000\000\000\000\006\000\000\000\001\000\000\000\001\000\000\000\002\000\000\000\001\000\000\000\000\000\000\000\002\000\000\000\001\000\000\000\000\000\000\000\000\000\000\000\001\000\000\000\000\000\000\000\016\000\000\000\000\000\000\000\000\000\000\000\001\000\000\000\000\000\000\000\000\000\000\000\002\000\000\000\003\000\000\000\001\000\000\000\007\000\000\000\000\000\000\000\000\000\000\000\004\000\000\000\001\000\000\000\000\000\000\000\001\000\000\000\000\000\000\000\000\000\000\000\032\000\000\000\001\000\000\000\000\000\000\000\004\000\000\000\001\000\000\000\002\000\000\000\000\000\000\000\r\000\000\000\002\000\000\000\006\000\000\000\000\000\000\000\003\000\000\000\003\000\000\000\005\000\000\000\000\000\000\000\001\000\000\000\013\000\000\000\016\000\000\000\006\000\000\000\006\000\000\000\002\000\000\000\001\000\000\000\001\000\000\000\000\000\000\000\001\000\000\000\010\000\000\000\007\000\000\000\002\000\000\000\000\000\000\000\001\000\000\000\003\000\000\000\001\000\000\000\000\000\000\000\000\000\000\000\002\000\000\000\001\000\000\000\020\000\000\000\003\000\000\000\021\000\000\000\020\000\000\000\016\000\000\000\000\000\000\000\001\000\000\000\000\000\000\000\001\000\000\000\000\000\000\000\000\000\000\000\000\000\000\000\000\000\000\000\000\000\000\000\001\000\000\000\001\000\000\000\002\000\000\000\001\000\000\000\003\000\000\000\001\000\000\000\021\000\000\000\004\000\000\000\021\000\000\000\001\000\000\000\016\000\000\000\001\000\000\000\000\000\000\000\001\000\000\000\000\000\000\000\000\000\000\000\001\000\000\000\002\000\000\000\004\000\000\000\003\000\000\000\001\000\000\000\023\000\000\000\000\000\000\000\005\000\000\000\000\000\000\000\001\000\000\000\002\000\000\000\004\000\000\000\001\000\000\000\000\000\000\000\002\000\000\000\001\000\000\000\002\000\000\000\n\000\000\000\006\000\000\000\000\000\000\000\000\000\000\000\000\000\000\000\007\000\000\000\022\000\000\000\001\000\000\000\002\000\000\000\005\000\000\000\t\000\000\000\000\000\000\000\005\000\000\000\005\000\000\000\003\000\000\000\000\000\000\000\001\000\000\000\006\000\000\000\t\000\000\000\004\000\000\000\000\000\000\000\000\000\000\000\005\000\000\000\004\000\000\000\004\000\000\000\004\000\000\000\006\000\000\000\001\000\000\000\031\000\000\000\t\000\000\000\003\000\000\000\002\000\000\000\004\000\000\000\003\000\000\000\004\000\000\000\003\000\000\000\000\000\000\000\t\000\000\000\003\000\000\000\001\000\000\000\003\000\000\000\006\000\000\000\005\000\000\000\002\000\000\000\003\000\000\000\013\000\000\000\017\000\000\000\013\000\000\000\016\000\000\000\004\000\000\000\010\000\000\000\001\000\000\000\002\000\000\000\000\000\000\000\001\000\000\000\000\000\000\000\000\000\000\000\017\000\000\000\025\000\000\000\000\000\000\000\002\000\000\000\001\000\000\000\001\000\000\000\020\000\000\000\021\000\000\000\001\000\000\000\004\000\000\000\016\000\000\000\000\000\000\000\000\000\000\000\004\000\000\000\000\000\000\000\001\000\000\000\000\000\000\000\001\000\000\000\000\000\000\000\001\000\000\000\002\000\000\000\000\000\000\000\000\000\000\000\004\000\000\000\001\000\000\000\000\000\000\000\001\000\000\000\003\000\000\000\016\000\000\000\006\000\000\000\003\000\000\000\000\000\000\000\010\000\000\000\001\000\000\000\006\000\000\000\002\000\000\000\001\000\000\000\002\000\000\000\007\000\000\000\000\000\000\000\001\000\000\000\000\000\000\000\002\000\000\0000\000\000\000\025\000\000\000\001\000\000\000\n\000\000\000\001\000\000\000\n\000\000\000\n\000\000\000\n\000\000\000\021\000\000\000\000\000\000\000\r\000\000\000\032\000\000\000\003\000\000\000\002\000\000\000\007\000\000\000\000\000\000\000\001\000\000\000\001\000\000\000\000\000\000\000\007\000\000\000\024\000\000\000\003\000\000\000\001\000\000\000\t\000\000\000\000\000\000\000\010\000\000\000\005\000\000\000\001\000\000\000\003\000\000\000\000\000\000\000\001\000\000\000\t\000\000\000\000\000\000\000\017\000\000\000\001\000\000\000\003\000\000\000\003\000\000\000\004\000\000\000\n\000\000\000\000\000\000\000\017\000\000\000\000\000\000\000\006\000\000\000\t\000\000\000\000\000\000\000\010\000\000\000\000\000\000\000\001\000\000\000\010\000\000\000\000\000\000\000\005\000\000\000\000\000\000\000\003\000\000\0005\000\000\000\000\000\000\000\005\000\000\000\000\000\000\000\003\000\000\000\005\000\000\000\004\000\000\000\006\000\000\000\001\000\000\000\007\000\000\000\000\000\000\000\010\000\000\000\000\000\000\000\002\000\000\000\001\000\000\000\t\000\000\000\003\000\000\000\010\000\000\000\005\000\000\000\000\000\000\000\000\000\000\000\005\000\000\000\000\000\000\000\000\000\000\000\005\000\000\000\003\000\000\000\022\000\000\000\000\000\000\000\004\000\000\000\001\000\000\000\021\000\000\000\001\000\000\000\003\000\000\000\013\000\000\000\001\000\000\000\r\000\000\000\000\000\000\000\000\000\000\000\001\000\000\000\002\000\000\000\001\000\000\000\000\000\000\000\000\000\000\000\004\000\000\000\022\000\000\000\n\000\000\000\002\000\000\000\000\000\000\000\000\000\000\000\n\000\000\000\n\000\000\000\003\000\000\000\n\000\000\000\001\000\000\000\017\000\000\000\000\000\000\000\001\000\000\000\003\000\000\000\001\000\000\000\000\000\000\000\001\000\000\000\000\000\000\000\005\000\000\000\000\000\000\000\002\000\000\000\000\000\000\000\000\000\000\000\003\000\000\000\007\000\000\000\010\000\000\000\007\000\000\000\004\000\000\000\001\000\000\000\010\000\000\000\007\000\000\000\000\000\000\000\000\000\000\000\006\000\000\000\005\000\000\000\000\000\000\000\007\000\000\000\005\000\000\000\002\000\000\000\000\000\000\000\001\000\000\000\014\000\000\000\007\000\000\000\000\000\000\000\001\000\000\000\000\000\000\000\000\000\000\000\007\000\000\000\002\000\000\000\001\000\000\000\006\000\000\000\002\000\000\000\031\000\000\000\031\000\000\000\005\000\000\000\r\000\000\000\n\000\000\000\000\000\000\000\004\000\000\000\006\000\000\000\021\000\000\000\001\000\000\000\000\000\000\000\t\000\000\000\007\000\000\000\002\000\000\000\004\000\000\000\016\000\000\000\000\000\000\000\000\000\000\000\001\000\000\000\003\000\000\000\000\000\000\000\002\000\000\000\003\000\000\000\001\000\000\000\010\000\000\000\010\000\000\000\001\000\000\000\000\000\000\000\000\000\000\000\001\000\000\000\001\000\000\000\000\000\000\000\020\000\000\000\004\000\000\000\001\000\000\000\000\000\000\000\000\000\000\000\000\000\000\000\002\000\000\000\003\000\000\000\001\000\000\000\006\000\000\000\004\000\000\000\000\000\000\000\001\000\000\000\007\000\000\000\002\000\000\000\003\000\000\000\004\000\000\000\021\000\000\000\032\000\000\000\001\000\000\000\010\000\000\000\r\000\000\000\001\000\000\000\002\000\000\000\003\000\000\000\000\000\000\000\006\000\000\000\013\000\000\000\003\000\000\000\r\000\000\000\000\000\000\000\000\000\000\000\004\000\000\000\005\000\000\000\001\000\000\000.\000\000\000\000\000\000\000\000\000\000\000\001\000\000\000\013\000\000\000\032\000\000\000\001\000\000\000\000\000\000\000\000\000\000\000\000\000\000\000\004\000\000\000\001\000\000\000\000\000\000\000\000\000\000\000\000\000\000\000\001\000\000\000\000\000\000\000\001\000\000\000\021\000\000\000\002\000\000\000\020\000\000\000\006\000\000\000\002\000\000\000\013\000\000\000\000\000\000\000\000\000\000\000\001\000\000\000\004\000\000\0003\000\000\000\003\000\000\000\002\000\000\000\007\000\000\000\003\000\000\000\031\000\000\000\000\000\000\000\000\000\000\000\t\000\000\000\006\000\000\000\004\000\000\000\004\000\000\000\000\000\000\000\003\000\000\000\001\000\000\000\000\000\000\000\r\000\000\000\004\000\000\000\005\000\000\000\005\000\000\000\036\000\000\000\006\000\000\000\n\000\000\000\002\000\000\000\001\000\000\000\010\000\000\000\002\000\000\000\023\000\000\0004\000\000\000\n\000\000\000\r\000\000\000\004\000\000\000\000\000\000\000\002\000\000\000\001\000\000\000\000\000\000\000\007\000\000\000\001\000\000\000\007\000\000\000\004\000\000\000\001\000\000\000\000\000\000\000\t\000\000\000\005\000\000\000\005\000\000\000\001\000\000\000\000\000\000\000\000\000\000\000\007\000\000\000\014\000\000\000\003\000\000\000\002\000\000\000\000\000\000\000\001\000\000\000\014\000\000\000\005\000\000\000\014\000\000\000\010\000\000\000\006\000\000\000\001\000\000\000\004\000\000\000\014\000\000\000\000\000\000\000\000\000\000\000\014\000\000\000\000\000\000\000\006\000\000\000\001\000\000\000\014\000\000\000\'\000\000\000\000\000\000\000\000\000\000\000\003\000\000\000\t\000\000\000\000\000\000\000\001\000\000\000\002\000\000\000\004\000\000\000\n\000\000\000\n\000\000\000\t\000\000\000\t\000\000\000\007\000\000\000\002\000\000\000\t\000\000\000\003\000\000\000\n\000\000\000\007\000\000\000\004\000\000\000\000\000\000\000\003\000\000\000\007\000\000\000\003\000\000\000\014\000\000\000\001\000\000\000\n\000\000\000\014\000\000\000\007\000\000\000\000\000\000\000\007\000\000\000\000\000\000\000\014\000\000\000\002\000\000\000\017\000\000\000\005\000\000\000\000\000\000\000\014\000\000\000\000\000\000\000\005\000\000\000\004\000\000\000\004\000\000\000\002\000\000\000\014\000\000\000\003\000\000\000\007\000\000\000:\000\000\000\000\000\000\000\006\000\000\000\001\000\000\000\000\000\000\000\025\000\000\000\001\000\000\000\003\000\000\000\013\000\000\000\000\000\000\000\007\000\000\000\r\000\000\000\002\000\000\000\005\000\000\000\013\000\000\000\014\000\000\000\007\000\000\000\002\000\000\0008\000\000\000/\000\000\000\007\000\000\000\004\000\000\000\001\000\000\000\005\000\000\000\014\000\000\000\005\000\000\000\005\000\000\000\000\000\000\000\000\000\000\000\003\000\000\000\005\000\000\000\t\000\000\000\001\000\000\000\000\000\000\000\001\000\000\000\010\000\000\000\001\000\000\000\014\000\000\000\014\000\000\000\031\000\000\000\005\000\000\000\006\000\000\000\010\000\000\000\014\000\000\000\014\000\000\000\004\000\000\000\000\000\000\000\001\000\000\000\014\000\000\000\000\000\000\000\014\000\000\000\001\000\000\000\014\000\000\000\000\000\000\000\014\000\000\000#\000\000\000\002\000\000\000\001\000\000\000\003\000\000\000\003\000\000\000\003\000\000\000\013\000\000\000\r\000\000\000\003\000\000\000\001\000\000\000\005\000\000\000\005\000\000\000\004\000\000\000\017\000\000\000\014\000\000\000\003\000\000\000\024\000\000\000$\000\000\000\001\000\000\000\007\000\000\000\000\000\000\000\001\000\000\000\023\000\000\000\000\000\000\000\002\000\000\000\n\000\000\000\000\000\000\000\000\000\000\000\000\000\000\000\001\000\000\000\000\000\000\000\000\000\000\000\002\000\000\000\000\000\000\000\006\000\000\000\001\000\000\000\003\000\000\000\n\000\000\000\006\000\000\000\002\000\000\000\013\000\000\000\r\000\000\000\001\000\000\000\t\000\000\000\013\000\000\000\001\000\000\000\013\000\000\000\t\000\000\000\013\000\000\000\001\000\000\000\020\000\000\000\003\000\000\000\013\000\000\000\t\000\000\000\r\000\000\000\t\000\000\000\013\000\000\000\003\000\000\000\000\000\000\000\013\000\000\000\004\000\000\000\000\000\000\000\r\000\000\000\001\000\000\000\003\000\000\000\020\000\000\000\001\000\000\000%\000\000\000\000\000\000\000\001\000\000\000\002\000\000\000\004\000\000\000\000\000\000\000\004\000\000\000\000\000\000\000\r\000\000\000\001\000\000\000\000\000\000\000\002\000\000\000\001\000\000\000\001\000\000\000\001\000\000\000\003\000\000\000\002\000\000\000\021\000\000\000\000\000\000\000\000\000\000\000\000\000\000\000\000\000\000\000\000\000\000\000\004\000\000\000\016\000\000\000\000\000\000\000\000\000\000\000\000\000\000\000\003\000\000\000\000\000\000\000\001\000\000\000\003\000\000\000\003\000\000\000\001\000\000\000\002\000\000\000\020\000\000\000 \000\000\000\006\000\000\000\003\000\000\000\020\000\000\000\021\000\000\000\001\000\000\000\020\000\000\000\000\000\000\000\000\000\000\000\020\000\000\000\003\000\000\000\013\000\000\000\000\000\000\000\r\000\000\000\032\000\000\000\003\000\000\000\000\000\000\000\001\000\000\000\000\000\000\000\002\000\000\000\001\000\000\000\000\000\000\000\002\000\000\000\000\000\000\000\001\000\000\000\000\000\000\000\001\000\000\000\002\000\000\000\000\000\000\000\006\000\000\000\001\000\000\000\000\000\000\000\003\000\000\000\000\000\000\000\000\000\000\000\000\000\000\000\t\000\000\000\000\000\000\000\t\000\000\000\002\000\000\000\014\000\000\000\001\000\000\000\010\000\000\000\000\000\000\000\001\000\000\000\002\000\000\000\007\000\000\000\004\000\000\000\001\000\000\000\001\000\000\000\020\000\000\000\001\000\000\000\000\000\000\000\000\000\000\000\007\000\000\000\003\000\000\000\002\000\000\000\004\000\000\000\n\000\000\000\013\000\000\000\016\000\000\000\000\000\000\000\001\000\000\000\000\000\000\000\000\000\000\000\003\000\000\000\000\000\000\000\000\000\000\000\000\000\000\000\001\000\000\000\000\000\000\000\004\000\000\000\014\000\000\000\014\000\000\000\000\000\000\000\001\000\000\000\000\000\000\000\001\000\000\000\003\000\000\000\002\000\000\000\000\000\000\000\001\000\000\000\002\000\000\000\000\000\000\000\000\000\000\000\001\000\000\000\001\000\000\000\003\000\000\000\003\000\000\000\001\000\000\000\003\000\000\000\001\000\000\000\001\000\000\000\002\000\000\000\003\000\000\000\004\000\000\000\000\000\000\000\004\000\000\000\020\000\000\000\022\000\000\000\001\000\000\000\000\000\000\000\r\000\000\000\003\000\000\000\001\000\000\000\000\000\000\000\003\000\000\000\001\000\000\000\003\000\000\000\002\000\000\000\007\000\000\000\006\000\000\000\000\000\000\000\001\000\000\000\004\000\000\000\001\000\000\000\000\000\000\000\001\000\000\000\003\000\000\000\002\000\000\000\r\000\000\000\002\000\000\000\004\000\000\000\001\000\000\000\010\000\000\000\003\000\000\000\000\000\000\000\001\000\000\000\013\000\000\000\000\000\000\000\t\000\000\000\010\000\000\000\022\000\000\000\023\000\000\000,\000\000\000\001\000\000\000\n\000\000\000\000\000\000\000\006\000\000\000\001\000\000\000\003\000\000\000\027\000\000\000\t\000\000\000\004\000\000\000\003\000\000\000\t\000\000\000\003\000\000\000\t\000\000\000\t\000\000\000\010\000\000\000\000\000\000\000\006\000\000\000\001\000\000\000\010\000\000\000\000\000\000\000\000\000\000\000\005\000\000\000\002\000\000\000\006\000\000\000\001\000\000\000\003\000\000\000\021\000\000\000\033\000\000\000\n\000\000\000\000\000\000\000\t\000\000\000\002\000\000\000\003\000\000\000\001\000\000\000\007\000\000\000\024\000\000\000\001\000\000\000\006\000\000\000\005\000\000\000\000\000\000\000\000\000\000\000\005\000\000\000\005\000\000\000\005\000\000\000\000\000\000\000\005\000\000\000\003\000\000\000\001\000\000\000\010\000\000\000\r\000\000\000\000\000\000\000\023\000\000\000\000\000\000\000\014\000\000\000\001\000\000\000\034\000\000\000\000\000\000\000\000\000\000\000\001\000\000\000\000\000\000\000\000\000\000\000\002\000\000\000\000\000\000\000\000\000\000\000\001\000\000\000\000\000\000\000\010\000\000\000\000\000\000\000\000\000\000\000\001\000\000\000\000\000\000\000\002\000\000\000\003\000\000\000\r\000\000\000\000\000\000\000\001\000\000\000\010\000\000\000\003\000\000\000\000\000\000\000\006\000\000\000\001\000\000\000/\000\000\000\000\000\000\000\001\000\000\000\000\000\000\000\006\000\000\000\001\000\000\000\002\000\000\000\001\000\000\000\001\000\000\000\000\000\000\000\001\000\000\000\000\000\000\000\000\000\000\000\004\000\000\000\001\000\000\000\005\000\000\000\001\000\000\000\000\000\000\000\005\000\000\000\005\000\000\000\001\000\000\000\003\000\000\000\025\000\000\000\005\000\000\000\001\000\000\000\002\000\000\000\005\000\000\000\'\000\000\000\003\000\000\000\022\000\000\000\001\000\000\000\001\000\000\000\005\000\000\000\001\000\000\000\000\000\000\000\000\000\000\000\001\000\000\000\000\000\000\000\010\000\000\000\n\000\000\000\003\000\000\000\000\000\000\000\000\000\000\000\000\000\000\000\n\000\000\000\001\000\000\000\007\000\000\000\003\000\000\000\r\000\000\000\004\000\000\000\001\000\000\000\010\000\000\000\004\000\000\000\003\000\000\000\001\000\000\000\002\000\000\000\000\000\000\000\010\000\000\000\013\000\000\000\001\000\000\000\t\000\000\000\000\000\000\000\016\000\000\000\007\000\000\000\000\000\000\000\006\000\000\000\000\000\000\000\004\000\000\000\000\000\000\000\002\000\000\000\r\000\000\000\001\000\000\000\007\000\000\000\002\000\000\000\001\000\000\000\003\000\000\000\003\000\000\000\004\000\000\000\002\000\000\000\005\000\000\000\001\000\000\000\016\000\000\000\000\000\000\000\003\000\000\000\007\000\000\000\001\000\000\000\000\000\000\000\000\000\000\000\002\000\000\000\000\000\000\000\001\000\000\000\000\000\000\000\004\000\000\000\004\000\000\000\021\000\000\000\000\000\000\000\r\000\000\000\007\000\000\000\000\000\000\000\004\000\000\000\001\000\000\000\004\000\000\000\022\000\000\000\001\000\000\000\001\000\000\000\000\000\000\000\001\000\000\000\023\000\000\000\006\000\000\000\002\000\000\000\001\000\000\000\007\000\000\000\002\000\000\000\001\000\000\000\n\000\000\000\000\000\000\000\000\000\000\000\000\000\000\000\000\000\000\000\001\000\000\000\002\000\000\000\000\000\000\000\000\000\000\000\000\000\000\000\007\000\000\000\001\000\000\000\017\000\000\000\017\000\000\000\017\000\000\000\013\000\000\000\001\000\000\000\017\000\000\000\002\000\000\000\004\000\000\000\000\000\000\000\001\000\000\000\002\000\000\000\021\000\000\000\010\000\000\000\007\000\000\000\002\000\000\000\004\000\000\000\000\000\000\000\004\000\000\000\001\000\000\000\025\000\000\000\005\000\000\000\022\000\000\000\005\000\000\000\000\000\000\000\010\000\000\000\003\000\000\000\000\000\000\000\005\000\000\000\003\000\000\000\001\000\000\000\007\000\000\000\005\000\000\000\003\000\000\000\006\000\000\000\006\000\000\000\004\000\000\000\n\000\000\000\005\000\000\000\003\000\000\000\007\000\000\000\001\000\000\000\014\000\000\000\003\000\000\000\002\000\000\000\006\000\000\000&\000\000\000\r\000\000\000\005\000\000\000\r\000\000\000\005\000\000\000\005\000\000\000\000\000\000\000\001\000\000\000\007\000\000\000\t\000\000\000\005\000\000\000\002\000\000\000\005\000\000\000\000\000\000\000\004\000\000\000\001\000\000\000\002\000\000\000\t\000\000\000\006\000\000\000\000\000\000\000\005\000\000\000\002\000\000\000\001\000\000\000\007\000\000\000\000\000\000\000\000\000\000\000\016\000\000\000\010\000\000\000\004\000\000\000\000\000\000\000\000\000\000\000\t\000\000\000\r\000\000\000\013\000\000\000\020\000\000\000\002\000\000\000\001\000\000\000\004\000\000\000\000\000\000\000\t\000\000\000*\000\000\000\003\000\000\000\001\000\000\000\001\000\000\000\024\000\000\000\017\000\000\000\t\000\000\000\n\000\000\000\003\000\000\000\024\000\000\000\017\000\000\000\001\000\000\000\002\000\000\000\006\000\000\000\017\000\000\000\000\000\000\000\003\000\000\000\t\000\000\000\003\000\000\000\007\000\000\000\003\000\000\000\006\000\000\000\000\000\000\000\003\000\000\000\004\000\000\000\007\000\000\000\017\000\000\000\006\000\000\000\003\000\000\000\001\000\000\000\003\000\000\000\024\000\000\000\024\000\000\000\024\000\000\000\003\000\000\000\000\000\000\000\002\000\000\000\005\000\000\000\005\000\000\000\017\000\000\000\003\000\000\000\001\000\000\000\010\000\000\000\005\000\000\000\010\000\000\000\001\000\000\000\003\000\000\000\004\000\000\000\002\000\000\000\024\000\000\000\017\000\000\000\001\000\000\000\003\000\000\000\003\000\000\000\017\000\000\000\r\000\000\000\n\000\000\000\005\000\000\000\033\000\000\000\007\000\000\000\001\000\000\000\000\000\000\000\002\000\000\000\001\000\000\000\000\000\000\000\000\000\000\000\r\000\000\000\002\000\000\000\004\000\000\000\000\000\000\000\001\000\000\000\000\000\000\000\024\000\000\000\001\000\000\000\000\000\000\000\025\000\000\000\002\000\000\000\000\000\000\000\016\000\000\000\000\000\000\000\003\000\000\000\000\000\000\000\000\000\000\000\004\000\000\000\001\000\000\000\001\000\000\000\002\000\000\000\001\000\000\000\000\000\000\000\002\000\000\000\027\000\000\000\001\000\000\000\002\000\000\000\013\000\000\000\010\000\000\000\003\000\000\000\013\000\000\000\004\000\000\000\021\000\000\000\001\000\000\000\000\000\000\000\001\000\000\000\003\000\000\000\034\000\000\000\001\000\000\000\000\000\000\000\016\000\000\000\001\000\000\000\001\000\000\000\016\000\000\000\002\000\000\000\010\000\000\000\001\000\000\000\001\000\000\000\000\000\000\000\000\000\000\000\001\000\000\000\007\000\000\000\001\000\000\000\002\000\000\000\006\000\000\000\002\000\000\000\000\000\000\000\000\000\000\000\001\000\000\000\000\000\000\000\002\000\000\000\000\000\000\000\003\000\000\000\030\000\000\000\007\000\000\000&\000\000\000\004\000\000\000\000\000\000\000\003\000\000\000\001\000\000\000\000\000\000\000\001\000\000\000\002\000\000\000\000\000\000\000\001\000\000\000\002\000\000\000\003\000\000\000\000\000\000\000\001\000\000\000\002\000\000\000\003\000\000\000\010\000\000\000\001\000\000\000\004\000\000\000\021\000\000\000!\000\000\000\003\000\000\000\020\000\000\000\017\000\000\000\001\000\000\000\n\000\000\000\000\000\000\000\024\000\000\000\000\000\000\000\003\000\000\000\001\000\000\000\000\000\000\000\020\000\000\000\002\000\000\000\003\000\000\000\002\000\000\000\003\000\000\000\001\000\000\000\025\000\000\000\016\000\000\000\001\000\000\000\000\000\000\000\003\000\000\000\003\000\000\000\001\000\000\000\010\000\000\000\001\000\000\000\000\000\000\000\000\000\000\000\001\000\000\000\001\000\000\000\000\000\000\000\000\000\000\000\001\000\000\000\002\000\000\000\004\000\000\000\010\000\000\000\021\000\000\000\020\000\000\000\004\000\000\000\016\000\000\000\000\000\000\000\024\000\000\000\001\000\000\000\000\000\000\000)\000\000\000\026\000\000\000\000\000\000\000\000\000\000\000\003\000\000\000#\000\000\000\000\000\000\000\001\000\000\000\002\000\000\000\000\000\000\000\001\000\000\000\000\000\000\000\000\000\000\000\001\000\000\000\003\000\000\000\000\000\000\000\000\000\000\000\001\000\000\000\001\000\000\000\001\000\000\000\000\000\000\000\002\000\000\000\001\000\000\000\000\000\000\000\020\000\000\000\004\000\000\000\004\000\000\0001\000\000\000\021\000\000\000\001\000\000\000\000\000\000\000\000\000\000\000\021\000\000\000\004\000\000\000\026\000\000\000\001\000\000\000\000\000\000\000\004\000\000\000\004\000\000\000\026\000\000\000\021\000\000\000\000\000\000\000\000\000\000\000\016\000\000\000\001\000\000\000\000\000\000\000\001\000\000\000\000\000\000\000\002\000\000\000\001\000\000\000\003\000\000\000\001\000\000\000\020\000\000\000\021\000\000\000\000\000\000\000\001\000\000\000\000\000\000\000$\000\000\000\001\000\000\000\000\000\000\000\000\000\000\000\017\000\000\000\001\000\000\000\005\000\000\000\000\000\000\000\001\000\000\000\000\000\000\000\006\000\000\000\000\000\000\000\001\000\000\000\000\000\000\000\n\000\000\000\002\000\000\000\030\000\000\000\003\000\000\000\001\000\000\000\007\000\000\000\005\000\000\000\004\000\000\000\023\000\000\000\005\000\000\000\001\000\000\000\000\000\000\000\r\000\000\000\005\000\000\000\003\000\000\000\000\000\000\000\000\000\000\000\000\000\000\000\001\000\000\000\003\000\000\000\017\000\000\000\005\000\000\000\003\000\000\000\002\000\000\000\t\000\000\000\003\000\000\000\005\000\000\000\n\000\000\000\003\000\000\000\007\000\000\000\000\000\000\000\007\000\000\000\n\000\000\000\003\000\000\000\003\000\000\000\n\000\000\000\003\000\000\000\001\000\000\000\006\000\000\000\030\000\000\000\003\000\000\000\000\000\000\000\001\000\000\000\007\000\000\000\002\000\000\000\001\000\000\000\004\000\000\000\014\000\000\000\007\000\000\000\000\000\000\000\013\000\000\000\000\000\000\000\t\000\000\000\026\000\000\000\013\000\000\000\000\000\000\000\003\000\000\000\001\000\000\000\000\000\000\000\016\000\000\000\000\000\000\000\001\000\000\000\000\000\000\000\000\000\000\000\000\000\000\000\002\000\000\000)\000\000\000\001\000\000\000\004\000\000\000\000\000\000\000\000\000\000\000\001\000\000\000\000\000\000\000\000\000\000\000\001\000\000\000\002\000\000\000\r\000\000\000\000\000\000\000\001\000\000\000\000\000\000\000\000\000\000\000\002\000\000\000\001\000\000\000\002\000\000\000\000\000\000\000\001\000\000\000\003\000\000\000\013\000\000\000\r\000\000\000\007\000\000\000\001\000\000\000\r\000\000\000\013\000\000\000\006\000\000\000\003\000\000\000\021\000\000\000\004\000\000\000\007\000\000\000\014\000\000\000\001\000\000\000\000\000\000\000\001\000\000\000\014\000\000\000\004\000\000\000\016\000\000\000\000\000\000\000\001\000\000\000\006\000\000\000\000\000\000\000\006\000\000\000\010\000\000\000\001\000\000\000\010\000\000\000\006\000\000\000\002\000\000\000\001\000\000\000\007\000\000\000\003\000\000\000\001\000\000\000\001\000\000\000\002\000\000\000\001\000\000\000\002\000\000\000\014\000\000\000\000\000\000\000\020\000\000\000\004\000\000\000\016\000\000\000\000\000\000\000\003\000\000\000\000\000\000\000\010\000\000\000\001\000\000\000\000\000\000\000\003\000\000\000\001\000\000\000\021\000\000\000\004\000\000\000\006\000\000\000\000\000\000\000\001\000\000\000\000\000\000\000\020\000\000\000\013\000\000\000\006\000\000\000\013\000\000\000\003\000\000\000\003\000\000\000\010\000\000\000\016\000\000\000\002\000\000\000\001\000\000\000\001\000\000\000\000\000\000\000\001\000\000\000\007\000\000\000\002\000\000\000\000\000\000\000\000\000\000\000\000\000\000\000\002\000\000\000\002\000\000\000\001\000\000\000\000\000\000\000\000\000\000\000\000\000\000\000\001\000\000\000\000\000\000\000\002\000\000\000\001\000\000\000\014\000\000\000\007\000\000\000\001\000\000\000\000\000\000\000\006\000\000\000\000\000\000\000\004\000\000\000\004\000\000\000\020\000\000\000\001\000\000\000\016\000\000\000\010\000\000\000\001\000\000\000\000\000\000\000\001\000\000\000\001\000\000\000\002\000\000\000\016\000\000\000\000\000\000\000\001\000\000\000\001\000\000\000\001\000\000\000\000\000\000\000\000\000\000\000\006\000\000\000\004\000\000\000!\000\000\000\003\000\000\000\003\000\000\000\001\000\000\000\002\000\000\000\000\000\000\000\001\000\000\000\003\000\000\000\002\000\000\000\000\000\000\000\n\000\000\000\001\000\000\000\000\000\000\000\003\000\000\000\000\000\000\000\002\000\000\000\000\000\000\000\004\000\000\000\000\000\000\000\001\000\000\000\000\000\000\000\000\000\000\000\001\000\000\000\030\000\000\000\000\000\000\000\005\000\000\000\004\000\000\000\002\000\000\000\001\000\000\000\000\000\000\000\000\000\000\000\003\000\000\000\002\000\000\000\000\000\000\000\000\000\000\000\013\000\000\000\004\000\000\000\021\000\000\000\001\000\000\000\003\000\000\000\004\000\000\000\037\000\000\000\001\000\000\000\000\000\000\000\001\000\000\000\001\000\000\000\000\000\000\000\000\000\000\000\000\000\000\000\001\000\000\000\000\000\000\000-\000\000\000\002\000\000\000\006\000\000\000\001\000\000\000\000\000\000\000\004\000\000\000\000\000\000\000\005\000\000\000\000\000\000\000\006\000\000\000\004\000\000\000\014\000\000\000\014\000\000\000\004\000\000\000\001\000\000\000\000\000\000\000\014\000\000\000\000\000\000\000\n\000\000\000\001\000\000\000\010\000\000\000\004\000\000\000\001\000\000\000\004\000\000\000\000\000\000\000\026\000\000\000\002\000\000\000\002\000\000\000\004\000\000\000\001\000\000\000\t\000\000\000\021\000\000\000\004\000\000\000\016\000\000\000\001\000\000\000\000\000\000\000\001\000\000\000\000\000\000\000\002\000\000\000\000\000\000\000\001\000\000\000\000\000\000\000\023\000\000\000\000\000\000\000\001\000\000\000\004\000\000\000\000\000\000\000\001\000\000\000\000\000\000\000\002\000\000\000\000\000\000\000\000\000\000\000\n\000\000\000\000\000\000\000\001\000\000\000\000\000\000\000\004\000\000\000\002\000\000\000\004\000\000\000\010\000\000\000\000\000\000\000\000\000\000\000\n\000\000\000\000\000\000\000\001\000\000\000\001\000\000\000\007\000\000\000\002\000\000\000\034\000\000\000\001\000\000\000\r\000\000\000\001\000\000\000\004\000\000\000\017\000\000\000\002\000\000\000\030\000\000\000\002\000\000\000\013\000\000\000\000\000\000\000\001\000\000\000\005\000\000\000\004\000\000\000\000\000\000\000\000\000\000\000\001\000\000\000\000\000\000\000\036\000\000\000\n\000\000\000\021\000\000\000\n\000\000\000\003\000\000\000\001\000\000\000\002\000\000\000\007\000\000\000\003\000\000\000\000\000\000\000\001\000\000\000\000\000\000\000\004\000\000\000\000\000\000\000\001\000\000\000\002\000\000\000\005\000\000\000\002\000\000\000\006\000\000\000\004\000\000\000\000\000\000\000\002\000\000\000\007\000\000\000\014\000\000\000\001\000\000\000\017\000\000\000%\000\000\000\002\000\000\000\002\000\000\000\001\000\000\000\005\000\000\000\005\000\000\000\026\000\000\000\001\000\000\000\001\000\000\000\001\000\000\0009\000\000\000(\000\000\000\006\000\000\000\017\000\000\000\r\000\000\000\010\000\000\000\010\000\000\000\002\000\000\000\003\000\000\000\020\000\000\000\003\000\000\000\000\000\000\000\001\000\000\000\023\000\000\000\005\000\000\000\005\000\000\000\004\000\000\000\004\000\000\000\001\000\000\000\000\000\000\000\000\000\000\000\017\000\000\000\003\000\000\000\007\000\000\000\017\000\000\000\002\000\000\000!\000\000\000\n\000\000\000\007\000\000\000\t\000\000\000\001\000\000\000\006\000\000\000\t\000\000\000\010\000\000\000\000\000\000\000\004\000\000\000\001\000\000\000\000\000\000\000\005\000\000\000\000\000\000\000\010\000\000\000\017\000\000\000\t\000\000\000\000\000\000\000\t\000\000\000\000\000\000\000\001\000\000\000\006\000\000\000\t\000\000\000\t\000\000\000\000\000\000\000\025\000\000\000\000\000\000\000\007\000\000\000\001\000\000\000\003\000\000\000\013\000\000\000\002\000\000\000\000\000\000\000\003\000\000\000\014\000\000\000\003\000\000\000\001\000\000\000\016\000\000\000\001\000\000\000\000\000\000\000\000\000\000\000\001\000\000\000\000\000\000\000\001\000\000\000\023\000\000\000\001\000\000\000\007\000\000\000\001\000\000\000\002\000\000\000\007\000\000\000\000\000\000\000\004\000\000\000\007\000\000\000\000\000\000\000\001\000\000\000\000\000\000\000\000\000\000\000\002\000\000\000\023\000\000\000\000\000\000\000\001\000\000\000\000\000\000\000\023\000\000\000\001\000\000\000\002\000\000\000\020\000\000\000\001\000\000\000\001\000\000\000\001\000\000\000\002\000\000\000\020\000\000\000\010\000\000\000\000\000\000\000\003\000\000\000\013\000\000\000\000\000\000\000\000\000\000\000\001\000\000\000\000\000\000\000\000\000\000\000\002\000\000\000\001\000\000\000\002\000\000\000\000\000\000\000\000\000\000\000\001\000\000\000\020\000\000\000\003\000\000\000\006\000\000\000\001\000\000\000\000\000\000\000\001\000\000\000\004\000\000\000\004\000\000\000\001\000\000\000\022\000\000\000\002\000\000\000\007\000\000\000\001\000\000\000\010\000\000\000\005\000\000\000\t\000\000\000\006\000\000\000\000\000\000\000\006\000\000\000\001\000\000\000\001\000\000\000\000\000\000\000\000\000\000\000\005\000\000\000\000\000\000\000\001\000\000\000\003\000\000\000\n\000\000\000\000\000\000\000\001\000\000\000\014\000\000\000\000\000\000\000\002\000\000\000\000\000\000\000\022\000\000\000\000\000\000\000\000\000\000\000\001\000\000\000\000\000\000\000\004\000\000\000\000\000\000\000\000\000\000\000\002\000\000\000\003\000\000\000\004\000\000\000\005\000\000\000\017\000\000\000\003\000\000\000\001\000\000\000\000\000\000\000\003\000\000\000\001\000\000\000\007\000\000\000\000\000\000\000\002\000\000\000\001\000\000\000\001\000\000\000\000\000\000\000\001\000\000\000\010\000\000\000\013\000\000\000\000\000\000\000\002\000\000\000\020\000\000\000\001\000\000\000\001\000\000\000\n\000\000\000#\000\000\000\004\000\000\000\027\000\000\000\013\000\000\000\004\000\000\000\001\000\000\000\000\000\000\000\020\000\000\000\002\000\000\000\001\000\000\000\000\000\000\000\001\000\000\000\003\000\000\000\r\000\000\000\000\000\000\000\001\000\000\000\002\000\000\000\003\000\000\000\020\000\000\000\016\000\000\000\003\000\000\000\001\000\000\000\001\000\000\000\002\000\000\000\000\000\000\000\000\000\000\000\023\000\000\000\001\000\000\000\000\000\000\000\000\000\000\000\002\000\000\000\002\000\000\000\002\000\000\000\014\000\000\000\013\000\000\000\000\000\000\000\001\000\000\000\002\000\000\000\020\000\000\000\000\000\000\000\000\000\000\000\025\000\000\000\001\000\000\000\002\000\000\000\007\000\000\000\004\000\000\000\000\000\000\000\037\000\000\000!\000\000\000\001\000\000\000\000\000\000\000\004\000\000\000\001\000\000\000\001\000\000\000\000\000\000\000\003\000\000\000\002\000\000\000\000\000\000\000\001\000\000\000\000\000\000\000\000\000\000\000\000\000\000\000\001\000\000\000\006\000\000\000\013\000\000\000\016\000\000\000\001\000\000\000\000\000\000\000\001\000\000\000\000\000\000\000\002\000\000\000\001\000\000\000\023\000\000\000\000\000\000\000\001\000\000\000\000\000\000\000\000\000\000\000\002\000\000\000\006\000\000\000\001\000\000\000\000\000\000\000\000\000\000\000\006\000\000\000\007\000\000\000\001\000\000\000\010\000\000\000\002\000\000\000\001\000\000\000\010\000\000\000\002\000\000\000\002\000\000\000\007\000\000\000\014\000\000\000\001\000\000\000\002\000\000\000\000\000\000\000\006\000\000\000\020\000\000\000\014\000\000\000\001\000\000\000\001\000\000\000\000\000\000\000\035\000\000\000\003\000\000\000\026\000\000\000\002\000\000\000\003\000\000\000\n\000\000\000\017\000\000\000\004\000\000\000\003\000\000\000\t\000\000\000\003\000\000\000\026\000\000\000\010\000\000\000\000\000\000\000\000\000\000\000\005\000\000\000\004\000\000\000\005\000\000\000\004\000\000\000\000\000\000\000\003\000\000\000\001\000\000\000\000\000\000\000\026\000\000\000\n\000\000\000\000\000\000\000\000\000\000\000\010\000\000\000\001\000\000\000\010\000\000\000\003\000\000\000\002\000\000\000\000\000\000\000\004\000\000\000\004\000\000\000\000\000\000\000\000\000\000\000\000\000\000\000\006\000\000\000\n\000\000\000\000\000\000\000\002\000\000\000\003\000\000\000\n\000\000\000\001\000\000\000\002\000\000\000\n\000\000\000\006\000\000\000\000\000\000\000\r\000\000\000\006\000\000\000\006\000\000\000\003\000\000\000\001\000\000\000\035\000\000\000\001\000\000\000\031\000\000\000\n\000\000\000\001\000\000\000\006\000\000\000\005\000\000\000\001\000\000\000\000\000\000\000\004\000\000\000\003\000\000\000\001\000\000\000\007\000\000\000\000\000\000\000\010\000\000\000\r\000\000\000\t\000\000\000\002\000\000\000\n\000\000\000\n\000\000\000\007\000\000\000\001\000\000\000\017\000\000\000\002\000\000\000\000\000\000\000\006\000\000\000\000\000\000\000\000\000\000\000>\000\000\000\002\000\000\000\006\000\000\000\001\000\000\000\002\000\000\000\000\000\000\000\022\000\000\000\000\000\000\000\001\000\000\000\006\000\000\000\r\000\000\000\027\000\000\000\013\000\000\000\001\000\000\000\001\000\000\000\021\000\000\000\000\000\000\000\001\000\000\0002\000\000\000"
      }
    }
  }
}
node {
  name: "Train/TrainInput/Size"
  op: "Const"
  attr {
    key: "_output_shapes"
    value {
      list {
        shape {
        }
      }
    }
  }
  attr {
    key: "dtype"
    value {
      type: DT_INT32
    }
  }
  attr {
    key: "value"
    value {
      tensor {
        dtype: DT_INT32
        tensor_shape {
        }
        int_val: 5195
      }
    }
  }
}
node {
  name: "Train/TrainInput/floordiv/y"
  op: "Const"
  attr {
    key: "_output_shapes"
    value {
      list {
        shape {
        }
      }
    }
  }
  attr {
    key: "dtype"
    value {
      type: DT_INT32
    }
  }
  attr {
    key: "value"
    value {
      tensor {
        dtype: DT_INT32
        tensor_shape {
        }
        int_val: 20
      }
    }
  }
}
node {
  name: "Train/TrainInput/floordiv"
  op: "FloorDiv"
  input: "Train/TrainInput/Size"
  input: "Train/TrainInput/floordiv/y"
  attr {
    key: "T"
    value {
      type: DT_INT32
    }
  }
  attr {
    key: "_output_shapes"
    value {
      list {
        shape {
        }
      }
    }
  }
}
node {
  name: "Train/TrainInput/mul/x"
  op: "Const"
  attr {
    key: "_output_shapes"
    value {
      list {
        shape {
        }
      }
    }
  }
  attr {
    key: "dtype"
    value {
      type: DT_INT32
    }
  }
  attr {
    key: "value"
    value {
      tensor {
        dtype: DT_INT32
        tensor_shape {
        }
        int_val: 20
      }
    }
  }
}
node {
  name: "Train/TrainInput/mul"
  op: "Mul"
  input: "Train/TrainInput/mul/x"
  input: "Train/TrainInput/floordiv"
  attr {
    key: "T"
    value {
      type: DT_INT32
    }
  }
  attr {
    key: "_output_shapes"
    value {
      list {
        shape {
        }
      }
    }
  }
}
node {
  name: "Train/TrainInput/strided_slice/stack"
  op: "Const"
  attr {
    key: "_output_shapes"
    value {
      list {
        shape {
          dim {
            size: 1
          }
        }
      }
    }
  }
  attr {
    key: "dtype"
    value {
      type: DT_INT32
    }
  }
  attr {
    key: "value"
    value {
      tensor {
        dtype: DT_INT32
        tensor_shape {
          dim {
            size: 1
          }
        }
        int_val: 0
      }
    }
  }
}
node {
  name: "Train/TrainInput/strided_slice/stack_1"
  op: "Pack"
  input: "Train/TrainInput/mul"
  attr {
    key: "N"
    value {
      i: 1
    }
  }
  attr {
    key: "T"
    value {
      type: DT_INT32
    }
  }
  attr {
    key: "_output_shapes"
    value {
      list {
        shape {
          dim {
            size: 1
          }
        }
      }
    }
  }
  attr {
    key: "axis"
    value {
      i: 0
    }
  }
}
node {
  name: "Train/TrainInput/strided_slice/stack_2"
  op: "Const"
  attr {
    key: "_output_shapes"
    value {
      list {
        shape {
          dim {
            size: 1
          }
        }
      }
    }
  }
  attr {
    key: "dtype"
    value {
      type: DT_INT32
    }
  }
  attr {
    key: "value"
    value {
      tensor {
        dtype: DT_INT32
        tensor_shape {
          dim {
            size: 1
          }
        }
        int_val: 1
      }
    }
  }
}
node {
  name: "Train/TrainInput/strided_slice"
  op: "StridedSlice"
  input: "Train/TrainInput/raw_data"
  input: "Train/TrainInput/strided_slice/stack"
  input: "Train/TrainInput/strided_slice/stack_1"
  input: "Train/TrainInput/strided_slice/stack_2"
  attr {
    key: "Index"
    value {
      type: DT_INT32
    }
  }
  attr {
    key: "T"
    value {
      type: DT_INT32
    }
  }
  attr {
    key: "_output_shapes"
    value {
      list {
        shape {
          dim {
            size: -1
          }
        }
      }
    }
  }
  attr {
    key: "begin_mask"
    value {
      i: 0
    }
  }
  attr {
    key: "ellipsis_mask"
    value {
      i: 0
    }
  }
  attr {
    key: "end_mask"
    value {
      i: 0
    }
  }
  attr {
    key: "new_axis_mask"
    value {
      i: 0
    }
  }
  attr {
    key: "shrink_axis_mask"
    value {
      i: 0
    }
  }
}
node {
  name: "Train/TrainInput/Reshape/shape/0"
  op: "Const"
  attr {
    key: "_output_shapes"
    value {
      list {
        shape {
        }
      }
    }
  }
  attr {
    key: "dtype"
    value {
      type: DT_INT32
    }
  }
  attr {
    key: "value"
    value {
      tensor {
        dtype: DT_INT32
        tensor_shape {
        }
        int_val: 20
      }
    }
  }
}
node {
  name: "Train/TrainInput/Reshape/shape"
  op: "Pack"
  input: "Train/TrainInput/Reshape/shape/0"
  input: "Train/TrainInput/floordiv"
  attr {
    key: "N"
    value {
      i: 2
    }
  }
  attr {
    key: "T"
    value {
      type: DT_INT32
    }
  }
  attr {
    key: "_output_shapes"
    value {
      list {
        shape {
          dim {
            size: 2
          }
        }
      }
    }
  }
  attr {
    key: "axis"
    value {
      i: 0
    }
  }
}
node {
  name: "Train/TrainInput/Reshape"
  op: "Reshape"
  input: "Train/TrainInput/strided_slice"
  input: "Train/TrainInput/Reshape/shape"
  attr {
    key: "T"
    value {
      type: DT_INT32
    }
  }
  attr {
    key: "Tshape"
    value {
      type: DT_INT32
    }
  }
  attr {
    key: "_output_shapes"
    value {
      list {
        shape {
          dim {
            size: 20
          }
          dim {
            size: -1
          }
        }
      }
    }
  }
}
node {
  name: "Train/TrainInput/sub/y"
  op: "Const"
  attr {
    key: "_output_shapes"
    value {
      list {
        shape {
        }
      }
    }
  }
  attr {
    key: "dtype"
    value {
      type: DT_INT32
    }
  }
  attr {
    key: "value"
    value {
      tensor {
        dtype: DT_INT32
        tensor_shape {
        }
        int_val: 1
      }
    }
  }
}
node {
  name: "Train/TrainInput/sub"
  op: "Sub"
  input: "Train/TrainInput/floordiv"
  input: "Train/TrainInput/sub/y"
  attr {
    key: "T"
    value {
      type: DT_INT32
    }
  }
  attr {
    key: "_output_shapes"
    value {
      list {
        shape {
        }
      }
    }
  }
}
node {
  name: "Train/TrainInput/floordiv_1/y"
  op: "Const"
  attr {
    key: "_output_shapes"
    value {
      list {
        shape {
        }
      }
    }
  }
  attr {
    key: "dtype"
    value {
      type: DT_INT32
    }
  }
  attr {
    key: "value"
    value {
      tensor {
        dtype: DT_INT32
        tensor_shape {
        }
        int_val: 20
      }
    }
  }
}
node {
  name: "Train/TrainInput/floordiv_1"
  op: "FloorDiv"
  input: "Train/TrainInput/sub"
  input: "Train/TrainInput/floordiv_1/y"
  attr {
    key: "T"
    value {
      type: DT_INT32
    }
  }
  attr {
    key: "_output_shapes"
    value {
      list {
        shape {
        }
      }
    }
  }
}
node {
  name: "Train/TrainInput/assert_positive/Const"
  op: "Const"
  attr {
    key: "_output_shapes"
    value {
      list {
        shape {
        }
      }
    }
  }
  attr {
    key: "dtype"
    value {
      type: DT_INT32
    }
  }
  attr {
    key: "value"
    value {
      tensor {
        dtype: DT_INT32
        tensor_shape {
        }
        int_val: 0
      }
    }
  }
}
node {
  name: "Train/TrainInput/assert_positive/assert_less/Less"
  op: "Less"
  input: "Train/TrainInput/assert_positive/Const"
  input: "Train/TrainInput/floordiv_1"
  attr {
    key: "T"
    value {
      type: DT_INT32
    }
  }
  attr {
    key: "_output_shapes"
    value {
      list {
        shape {
        }
      }
    }
  }
}
node {
  name: "Train/TrainInput/assert_positive/assert_less/Const"
  op: "Const"
  attr {
    key: "_output_shapes"
    value {
      list {
        shape {
          dim {
          }
        }
      }
    }
  }
  attr {
    key: "dtype"
    value {
      type: DT_INT32
    }
  }
  attr {
    key: "value"
    value {
      tensor {
        dtype: DT_INT32
        tensor_shape {
          dim {
          }
        }
      }
    }
  }
}
node {
  name: "Train/TrainInput/assert_positive/assert_less/All"
  op: "All"
  input: "Train/TrainInput/assert_positive/assert_less/Less"
  input: "Train/TrainInput/assert_positive/assert_less/Const"
  attr {
    key: "Tidx"
    value {
      type: DT_INT32
    }
  }
  attr {
    key: "_output_shapes"
    value {
      list {
        shape {
        }
      }
    }
  }
  attr {
    key: "keep_dims"
    value {
      b: false
    }
  }
}
node {
  name: "Train/TrainInput/assert_positive/assert_less/Assert/Const"
  op: "Const"
  attr {
    key: "_output_shapes"
    value {
      list {
        shape {
        }
      }
    }
  }
  attr {
    key: "dtype"
    value {
      type: DT_STRING
    }
  }
  attr {
    key: "value"
    value {
      tensor {
        dtype: DT_STRING
        tensor_shape {
        }
        string_val: "epoch_size == 0, decrease batch_size or num_steps"
      }
    }
  }
}
node {
  name: "Train/TrainInput/assert_positive/assert_less/Assert/Const_1"
  op: "Const"
  attr {
    key: "_output_shapes"
    value {
      list {
        shape {
        }
      }
    }
  }
  attr {
    key: "dtype"
    value {
      type: DT_STRING
    }
  }
  attr {
    key: "value"
    value {
      tensor {
        dtype: DT_STRING
        tensor_shape {
        }
        string_val: "Condition x > 0 did not hold element-wise:"
      }
    }
  }
}
node {
  name: "Train/TrainInput/assert_positive/assert_less/Assert/Const_2"
  op: "Const"
  attr {
    key: "_output_shapes"
    value {
      list {
        shape {
        }
      }
    }
  }
  attr {
    key: "dtype"
    value {
      type: DT_STRING
    }
  }
  attr {
    key: "value"
    value {
      tensor {
        dtype: DT_STRING
        tensor_shape {
        }
        string_val: "x (Train/TrainInput/floordiv_1:0) = "
      }
    }
  }
}
node {
  name: "Train/TrainInput/assert_positive/assert_less/Assert/Assert/data_0"
  op: "Const"
  attr {
    key: "_output_shapes"
    value {
      list {
        shape {
        }
      }
    }
  }
  attr {
    key: "dtype"
    value {
      type: DT_STRING
    }
  }
  attr {
    key: "value"
    value {
      tensor {
        dtype: DT_STRING
        tensor_shape {
        }
        string_val: "epoch_size == 0, decrease batch_size or num_steps"
      }
    }
  }
}
node {
  name: "Train/TrainInput/assert_positive/assert_less/Assert/Assert/data_1"
  op: "Const"
  attr {
    key: "_output_shapes"
    value {
      list {
        shape {
        }
      }
    }
  }
  attr {
    key: "dtype"
    value {
      type: DT_STRING
    }
  }
  attr {
    key: "value"
    value {
      tensor {
        dtype: DT_STRING
        tensor_shape {
        }
        string_val: "Condition x > 0 did not hold element-wise:"
      }
    }
  }
}
node {
  name: "Train/TrainInput/assert_positive/assert_less/Assert/Assert/data_2"
  op: "Const"
  attr {
    key: "_output_shapes"
    value {
      list {
        shape {
        }
      }
    }
  }
  attr {
    key: "dtype"
    value {
      type: DT_STRING
    }
  }
  attr {
    key: "value"
    value {
      tensor {
        dtype: DT_STRING
        tensor_shape {
        }
        string_val: "x (Train/TrainInput/floordiv_1:0) = "
      }
    }
  }
}
node {
  name: "Train/TrainInput/assert_positive/assert_less/Assert/Assert"
  op: "Assert"
  input: "Train/TrainInput/assert_positive/assert_less/All"
  input: "Train/TrainInput/assert_positive/assert_less/Assert/Assert/data_0"
  input: "Train/TrainInput/assert_positive/assert_less/Assert/Assert/data_1"
  input: "Train/TrainInput/assert_positive/assert_less/Assert/Assert/data_2"
  input: "Train/TrainInput/floordiv_1"
  attr {
    key: "T"
    value {
      list {
        type: DT_STRING
        type: DT_STRING
        type: DT_STRING
        type: DT_INT32
      }
    }
  }
  attr {
    key: "summarize"
    value {
      i: 3
    }
  }
}
node {
  name: "Train/TrainInput/epoch_size"
  op: "Identity"
  input: "Train/TrainInput/floordiv_1"
  input: "^Train/TrainInput/assert_positive/assert_less/Assert/Assert"
  attr {
    key: "T"
    value {
      type: DT_INT32
    }
  }
  attr {
    key: "_output_shapes"
    value {
      list {
        shape {
        }
      }
    }
  }
}
node {
  name: "Train/TrainInput/input_producer/range/start"
  op: "Const"
  attr {
    key: "_output_shapes"
    value {
      list {
        shape {
        }
      }
    }
  }
  attr {
    key: "dtype"
    value {
      type: DT_INT32
    }
  }
  attr {
    key: "value"
    value {
      tensor {
        dtype: DT_INT32
        tensor_shape {
        }
        int_val: 0
      }
    }
  }
}
node {
  name: "Train/TrainInput/input_producer/range/delta"
  op: "Const"
  attr {
    key: "_output_shapes"
    value {
      list {
        shape {
        }
      }
    }
  }
  attr {
    key: "dtype"
    value {
      type: DT_INT32
    }
  }
  attr {
    key: "value"
    value {
      tensor {
        dtype: DT_INT32
        tensor_shape {
        }
        int_val: 1
      }
    }
  }
}
node {
  name: "Train/TrainInput/input_producer/range"
  op: "Range"
  input: "Train/TrainInput/input_producer/range/start"
  input: "Train/TrainInput/epoch_size"
  input: "Train/TrainInput/input_producer/range/delta"
  attr {
    key: "Tidx"
    value {
      type: DT_INT32
    }
  }
  attr {
    key: "_output_shapes"
    value {
      list {
        shape {
          dim {
            size: -1
          }
        }
      }
    }
  }
}
node {
  name: "Train/TrainInput/input_producer"
  op: "FIFOQueueV2"
  attr {
    key: "_output_shapes"
    value {
      list {
        shape {
        }
      }
    }
  }
  attr {
    key: "capacity"
    value {
      i: 32
    }
  }
  attr {
    key: "component_types"
    value {
      list {
        type: DT_INT32
      }
    }
  }
  attr {
    key: "container"
    value {
      s: ""
    }
  }
  attr {
    key: "shapes"
    value {
      list {
        shape {
        }
      }
    }
  }
  attr {
    key: "shared_name"
    value {
      s: ""
    }
  }
}
node {
  name: "Train/TrainInput/input_producer/input_producer_EnqueueMany"
  op: "QueueEnqueueManyV2"
  input: "Train/TrainInput/input_producer"
  input: "Train/TrainInput/input_producer/range"
  attr {
    key: "Tcomponents"
    value {
      list {
        type: DT_INT32
      }
    }
  }
  attr {
    key: "timeout_ms"
    value {
      i: -1
    }
  }
}
node {
  name: "Train/TrainInput/input_producer/input_producer_Close"
  op: "QueueCloseV2"
  input: "Train/TrainInput/input_producer"
  attr {
    key: "cancel_pending_enqueues"
    value {
      b: false
    }
  }
}
node {
  name: "Train/TrainInput/input_producer/input_producer_Close_1"
  op: "QueueCloseV2"
  input: "Train/TrainInput/input_producer"
  attr {
    key: "cancel_pending_enqueues"
    value {
      b: true
    }
  }
}
node {
  name: "Train/TrainInput/input_producer/input_producer_Size"
  op: "QueueSizeV2"
  input: "Train/TrainInput/input_producer"
  attr {
    key: "_output_shapes"
    value {
      list {
        shape {
        }
      }
    }
  }
}
node {
  name: "Train/TrainInput/input_producer/Cast"
  op: "Cast"
  input: "Train/TrainInput/input_producer/input_producer_Size"
  attr {
    key: "DstT"
    value {
      type: DT_FLOAT
    }
  }
  attr {
    key: "SrcT"
    value {
      type: DT_INT32
    }
  }
  attr {
    key: "_output_shapes"
    value {
      list {
        shape {
        }
      }
    }
  }
}
node {
  name: "Train/TrainInput/input_producer/mul/y"
  op: "Const"
  attr {
    key: "_output_shapes"
    value {
      list {
        shape {
        }
      }
    }
  }
  attr {
    key: "dtype"
    value {
      type: DT_FLOAT
    }
  }
  attr {
    key: "value"
    value {
      tensor {
        dtype: DT_FLOAT
        tensor_shape {
        }
        float_val: 0.03125
      }
    }
  }
}
node {
  name: "Train/TrainInput/input_producer/mul"
  op: "Mul"
  input: "Train/TrainInput/input_producer/Cast"
  input: "Train/TrainInput/input_producer/mul/y"
  attr {
    key: "T"
    value {
      type: DT_FLOAT
    }
  }
  attr {
    key: "_output_shapes"
    value {
      list {
        shape {
        }
      }
    }
  }
}
node {
  name: "Train/TrainInput/input_producer/fraction_of_32_full/tags"
  op: "Const"
  attr {
    key: "_output_shapes"
    value {
      list {
        shape {
        }
      }
    }
  }
  attr {
    key: "dtype"
    value {
      type: DT_STRING
    }
  }
  attr {
    key: "value"
    value {
      tensor {
        dtype: DT_STRING
        tensor_shape {
        }
        string_val: "Train/TrainInput/input_producer/fraction_of_32_full"
      }
    }
  }
}
node {
  name: "Train/TrainInput/input_producer/fraction_of_32_full"
  op: "ScalarSummary"
  input: "Train/TrainInput/input_producer/fraction_of_32_full/tags"
  input: "Train/TrainInput/input_producer/mul"
  attr {
    key: "T"
    value {
      type: DT_FLOAT
    }
  }
  attr {
    key: "_output_shapes"
    value {
      list {
        shape {
        }
      }
    }
  }
}
node {
  name: "Train/TrainInput/input_producer_Dequeue"
  op: "QueueDequeueV2"
  input: "Train/TrainInput/input_producer"
  attr {
    key: "_output_shapes"
    value {
      list {
        shape {
        }
      }
    }
  }
  attr {
    key: "component_types"
    value {
      list {
        type: DT_INT32
      }
    }
  }
  attr {
    key: "timeout_ms"
    value {
      i: -1
    }
  }
}
node {
